{
  "version": "1.0",
  "truncation": null,
  "padding": null,
  "added_tokens": [
    {
      "id": 0,
      "content": "<|endoftext|>",
      "single_word": false,
      "lstrip": false,
      "rstrip": false,
      "normalized": false,
      "special": true
    },
    {
      "id": 1,
      "content": "  ",
      "single_word": false,
      "lstrip": false,
      "rstrip": false,
      "normalized": false,
      "special": true
    },
    {
      "id": 2,
      "content": "    ",
      "single_word": false,
      "lstrip": false,
      "rstrip": false,
      "normalized": false,
      "special": true
    },
    {
      "id": 3,
      "content": "        ",
      "single_word": false,
      "lstrip": false,
      "rstrip": false,
      "normalized": false,
      "special": true
    },
    {
      "id": 4,
      "content": "            ",
      "single_word": false,
      "lstrip": false,
      "rstrip": false,
      "normalized": false,
      "special": true
    },
    {
      "id": 5,
      "content": "                ",
      "single_word": false,
      "lstrip": false,
      "rstrip": false,
      "normalized": false,
      "special": true
    },
    {
      "id": 6,
      "content": "00",
      "single_word": false,
      "lstrip": false,
      "rstrip": false,
      "normalized": false,
      "special": true
    },
    {
      "id": 7,
      "content": "01",
      "single_word": false,
      "lstrip": false,
      "rstrip": false,
      "normalized": false,
      "special": true
    },
    {
      "id": 8,
      "content": "02",
      "single_word": false,
      "lstrip": false,
      "rstrip": false,
      "normalized": false,
      "special": true
    },
    {
      "id": 9,
      "content": "03",
      "single_word": false,
      "lstrip": false,
      "rstrip": false,
      "normalized": false,
      "special": true
    },
    {
      "id": 10,
      "content": "04",
      "single_word": false,
      "lstrip": false,
      "rstrip": false,
      "normalized": false,
      "special": true
    },
    {
      "id": 11,
      "content": "05",
      "single_word": false,
      "lstrip": false,
      "rstrip": false,
      "normalized": false,
      "special": true
    },
    {
      "id": 12,
      "content": "06",
      "single_word": false,
      "lstrip": false,
      "rstrip": false,
      "normalized": false,
      "special": true
    },
    {
      "id": 13,
      "content": "07",
      "single_word": false,
      "lstrip": false,
      "rstrip": false,
      "normalized": false,
      "special": true
    },
    {
      "id": 14,
      "content": "08",
      "single_word": false,
      "lstrip": false,
      "rstrip": false,
      "normalized": false,
      "special": true
    },
    {
      "id": 15,
      "content": "09",
      "single_word": false,
      "lstrip": false,
      "rstrip": false,
      "normalized": false,
      "special": true
    },
    {
      "id": 16,
      "content": "10",
      "single_word": false,
      "lstrip": false,
      "rstrip": false,
      "normalized": false,
      "special": true
    },
    {
      "id": 17,
      "content": "11",
      "single_word": false,
      "lstrip": false,
      "rstrip": false,
      "normalized": false,
      "special": true
    },
    {
      "id": 18,
      "content": "12",
      "single_word": false,
      "lstrip": false,
      "rstrip": false,
      "normalized": false,
      "special": true
    },
    {
      "id": 19,
      "content": "13",
      "single_word": false,
      "lstrip": false,
      "rstrip": false,
      "normalized": false,
      "special": true
    },
    {
      "id": 20,
      "content": "14",
      "single_word": false,
      "lstrip": false,
      "rstrip": false,
      "normalized": false,
      "special": true
    },
    {
      "id": 21,
      "content": "15",
      "single_word": false,
      "lstrip": false,
      "rstrip": false,
      "normalized": false,
      "special": true
    },
    {
      "id": 22,
      "content": "16",
      "single_word": false,
      "lstrip": false,
      "rstrip": false,
      "normalized": false,
      "special": true
    },
    {
      "id": 23,
      "content": "17",
      "single_word": false,
      "lstrip": false,
      "rstrip": false,
      "normalized": false,
      "special": true
    },
    {
      "id": 24,
      "content": "18",
      "single_word": false,
      "lstrip": false,
      "rstrip": false,
      "normalized": false,
      "special": true
    },
    {
      "id": 25,
      "content": "19",
      "single_word": false,
      "lstrip": false,
      "rstrip": false,
      "normalized": false,
      "special": true
    },
    {
      "id": 26,
      "content": "20",
      "single_word": false,
      "lstrip": false,
      "rstrip": false,
      "normalized": false,
      "special": true
    },
    {
      "id": 27,
      "content": "21",
      "single_word": false,
      "lstrip": false,
      "rstrip": false,
      "normalized": false,
      "special": true
    },
    {
      "id": 28,
      "content": "22",
      "single_word": false,
      "lstrip": false,
      "rstrip": false,
      "normalized": false,
      "special": true
    },
    {
      "id": 29,
      "content": "23",
      "single_word": false,
      "lstrip": false,
      "rstrip": false,
      "normalized": false,
      "special": true
    },
    {
      "id": 30,
      "content": "24",
      "single_word": false,
      "lstrip": false,
      "rstrip": false,
      "normalized": false,
      "special": true
    },
    {
      "id": 31,
      "content": "25",
      "single_word": false,
      "lstrip": false,
      "rstrip": false,
      "normalized": false,
      "special": true
    },
    {
      "id": 32,
      "content": "26",
      "single_word": false,
      "lstrip": false,
      "rstrip": false,
      "normalized": false,
      "special": true
    },
    {
      "id": 33,
      "content": "27",
      "single_word": false,
      "lstrip": false,
      "rstrip": false,
      "normalized": false,
      "special": true
    },
    {
      "id": 34,
      "content": "28",
      "single_word": false,
      "lstrip": false,
      "rstrip": false,
      "normalized": false,
      "special": true
    },
    {
      "id": 35,
      "content": "29",
      "single_word": false,
      "lstrip": false,
      "rstrip": false,
      "normalized": false,
      "special": true
    },
    {
      "id": 36,
      "content": "30",
      "single_word": false,
      "lstrip": false,
      "rstrip": false,
      "normalized": false,
      "special": true
    },
    {
      "id": 37,
      "content": "31",
      "single_word": false,
      "lstrip": false,
      "rstrip": false,
      "normalized": false,
      "special": true
    },
    {
      "id": 38,
      "content": "32",
      "single_word": false,
      "lstrip": false,
      "rstrip": false,
      "normalized": false,
      "special": true
    },
    {
      "id": 39,
      "content": "33",
      "single_word": false,
      "lstrip": false,
      "rstrip": false,
      "normalized": false,
      "special": true
    },
    {
      "id": 40,
      "content": "34",
      "single_word": false,
      "lstrip": false,
      "rstrip": false,
      "normalized": false,
      "special": true
    },
    {
      "id": 41,
      "content": "35",
      "single_word": false,
      "lstrip": false,
      "rstrip": false,
      "normalized": false,
      "special": true
    },
    {
      "id": 42,
      "content": "36",
      "single_word": false,
      "lstrip": false,
      "rstrip": false,
      "normalized": false,
      "special": true
    },
    {
      "id": 43,
      "content": "37",
      "single_word": false,
      "lstrip": false,
      "rstrip": false,
      "normalized": false,
      "special": true
    },
    {
      "id": 44,
      "content": "38",
      "single_word": false,
      "lstrip": false,
      "rstrip": false,
      "normalized": false,
      "special": true
    },
    {
      "id": 45,
      "content": "39",
      "single_word": false,
      "lstrip": false,
      "rstrip": false,
      "normalized": false,
      "special": true
    },
    {
      "id": 46,
      "content": "40",
      "single_word": false,
      "lstrip": false,
      "rstrip": false,
      "normalized": false,
      "special": true
    },
    {
      "id": 47,
      "content": "41",
      "single_word": false,
      "lstrip": false,
      "rstrip": false,
      "normalized": false,
      "special": true
    },
    {
      "id": 48,
      "content": "42",
      "single_word": false,
      "lstrip": false,
      "rstrip": false,
      "normalized": false,
      "special": true
    },
    {
      "id": 49,
      "content": "43",
      "single_word": false,
      "lstrip": false,
      "rstrip": false,
      "normalized": false,
      "special": true
    },
    {
      "id": 50,
      "content": "44",
      "single_word": false,
      "lstrip": false,
      "rstrip": false,
      "normalized": false,
      "special": true
    },
    {
      "id": 51,
      "content": "45",
      "single_word": false,
      "lstrip": false,
      "rstrip": false,
      "normalized": false,
      "special": true
    },
    {
      "id": 52,
      "content": "46",
      "single_word": false,
      "lstrip": false,
      "rstrip": false,
      "normalized": false,
      "special": true
    },
    {
      "id": 53,
      "content": "47",
      "single_word": false,
      "lstrip": false,
      "rstrip": false,
      "normalized": false,
      "special": true
    },
    {
      "id": 54,
      "content": "48",
      "single_word": false,
      "lstrip": false,
      "rstrip": false,
      "normalized": false,
      "special": true
    },
    {
      "id": 55,
      "content": "49",
      "single_word": false,
      "lstrip": false,
      "rstrip": false,
      "normalized": false,
      "special": true
    },
    {
      "id": 56,
      "content": "50",
      "single_word": false,
      "lstrip": false,
      "rstrip": false,
      "normalized": false,
      "special": true
    },
    {
      "id": 57,
      "content": "51",
      "single_word": false,
      "lstrip": false,
      "rstrip": false,
      "normalized": false,
      "special": true
    },
    {
      "id": 58,
      "content": "52",
      "single_word": false,
      "lstrip": false,
      "rstrip": false,
      "normalized": false,
      "special": true
    },
    {
      "id": 59,
      "content": "53",
      "single_word": false,
      "lstrip": false,
      "rstrip": false,
      "normalized": false,
      "special": true
    },
    {
      "id": 60,
      "content": "54",
      "single_word": false,
      "lstrip": false,
      "rstrip": false,
      "normalized": false,
      "special": true
    },
    {
      "id": 61,
      "content": "55",
      "single_word": false,
      "lstrip": false,
      "rstrip": false,
      "normalized": false,
      "special": true
    },
    {
      "id": 62,
      "content": "56",
      "single_word": false,
      "lstrip": false,
      "rstrip": false,
      "normalized": false,
      "special": true
    },
    {
      "id": 63,
      "content": "57",
      "single_word": false,
      "lstrip": false,
      "rstrip": false,
      "normalized": false,
      "special": true
    },
    {
      "id": 64,
      "content": "58",
      "single_word": false,
      "lstrip": false,
      "rstrip": false,
      "normalized": false,
      "special": true
    },
    {
      "id": 65,
      "content": "59",
      "single_word": false,
      "lstrip": false,
      "rstrip": false,
      "normalized": false,
      "special": true
    },
    {
      "id": 66,
      "content": "60",
      "single_word": false,
      "lstrip": false,
      "rstrip": false,
      "normalized": false,
      "special": true
    },
    {
      "id": 67,
      "content": "61",
      "single_word": false,
      "lstrip": false,
      "rstrip": false,
      "normalized": false,
      "special": true
    },
    {
      "id": 68,
      "content": "62",
      "single_word": false,
      "lstrip": false,
      "rstrip": false,
      "normalized": false,
      "special": true
    },
    {
      "id": 69,
      "content": "63",
      "single_word": false,
      "lstrip": false,
      "rstrip": false,
      "normalized": false,
      "special": true
    },
    {
      "id": 70,
      "content": "64",
      "single_word": false,
      "lstrip": false,
      "rstrip": false,
      "normalized": false,
      "special": true
    },
    {
      "id": 71,
      "content": "65",
      "single_word": false,
      "lstrip": false,
      "rstrip": false,
      "normalized": false,
      "special": true
    },
    {
      "id": 72,
      "content": "66",
      "single_word": false,
      "lstrip": false,
      "rstrip": false,
      "normalized": false,
      "special": true
    },
    {
      "id": 73,
      "content": "67",
      "single_word": false,
      "lstrip": false,
      "rstrip": false,
      "normalized": false,
      "special": true
    },
    {
      "id": 74,
      "content": "68",
      "single_word": false,
      "lstrip": false,
      "rstrip": false,
      "normalized": false,
      "special": true
    },
    {
      "id": 75,
      "content": "69",
      "single_word": false,
      "lstrip": false,
      "rstrip": false,
      "normalized": false,
      "special": true
    },
    {
      "id": 76,
      "content": "70",
      "single_word": false,
      "lstrip": false,
      "rstrip": false,
      "normalized": false,
      "special": true
    },
    {
      "id": 77,
      "content": "71",
      "single_word": false,
      "lstrip": false,
      "rstrip": false,
      "normalized": false,
      "special": true
    },
    {
      "id": 78,
      "content": "72",
      "single_word": false,
      "lstrip": false,
      "rstrip": false,
      "normalized": false,
      "special": true
    },
    {
      "id": 79,
      "content": "73",
      "single_word": false,
      "lstrip": false,
      "rstrip": false,
      "normalized": false,
      "special": true
    },
    {
      "id": 80,
      "content": "74",
      "single_word": false,
      "lstrip": false,
      "rstrip": false,
      "normalized": false,
      "special": true
    },
    {
      "id": 81,
      "content": "75",
      "single_word": false,
      "lstrip": false,
      "rstrip": false,
      "normalized": false,
      "special": true
    },
    {
      "id": 82,
      "content": "76",
      "single_word": false,
      "lstrip": false,
      "rstrip": false,
      "normalized": false,
      "special": true
    },
    {
      "id": 83,
      "content": "77",
      "single_word": false,
      "lstrip": false,
      "rstrip": false,
      "normalized": false,
      "special": true
    },
    {
      "id": 84,
      "content": "78",
      "single_word": false,
      "lstrip": false,
      "rstrip": false,
      "normalized": false,
      "special": true
    },
    {
      "id": 85,
      "content": "79",
      "single_word": false,
      "lstrip": false,
      "rstrip": false,
      "normalized": false,
      "special": true
    },
    {
      "id": 86,
      "content": "80",
      "single_word": false,
      "lstrip": false,
      "rstrip": false,
      "normalized": false,
      "special": true
    },
    {
      "id": 87,
      "content": "81",
      "single_word": false,
      "lstrip": false,
      "rstrip": false,
      "normalized": false,
      "special": true
    },
    {
      "id": 88,
      "content": "82",
      "single_word": false,
      "lstrip": false,
      "rstrip": false,
      "normalized": false,
      "special": true
    },
    {
      "id": 89,
      "content": "83",
      "single_word": false,
      "lstrip": false,
      "rstrip": false,
      "normalized": false,
      "special": true
    },
    {
      "id": 90,
      "content": "84",
      "single_word": false,
      "lstrip": false,
      "rstrip": false,
      "normalized": false,
      "special": true
    },
    {
      "id": 91,
      "content": "85",
      "single_word": false,
      "lstrip": false,
      "rstrip": false,
      "normalized": false,
      "special": true
    },
    {
      "id": 92,
      "content": "86",
      "single_word": false,
      "lstrip": false,
      "rstrip": false,
      "normalized": false,
      "special": true
    },
    {
      "id": 93,
      "content": "87",
      "single_word": false,
      "lstrip": false,
      "rstrip": false,
      "normalized": false,
      "special": true
    },
    {
      "id": 94,
      "content": "88",
      "single_word": false,
      "lstrip": false,
      "rstrip": false,
      "normalized": false,
      "special": true
    },
    {
      "id": 95,
      "content": "89",
      "single_word": false,
      "lstrip": false,
      "rstrip": false,
      "normalized": false,
      "special": true
    },
    {
      "id": 96,
      "content": "90",
      "single_word": false,
      "lstrip": false,
      "rstrip": false,
      "normalized": false,
      "special": true
    },
    {
      "id": 97,
      "content": "91",
      "single_word": false,
      "lstrip": false,
      "rstrip": false,
      "normalized": false,
      "special": true
    },
    {
      "id": 98,
      "content": "92",
      "single_word": false,
      "lstrip": false,
      "rstrip": false,
      "normalized": false,
      "special": true
    },
    {
      "id": 99,
      "content": "93",
      "single_word": false,
      "lstrip": false,
      "rstrip": false,
      "normalized": false,
      "special": true
    },
    {
      "id": 100,
      "content": "94",
      "single_word": false,
      "lstrip": false,
      "rstrip": false,
      "normalized": false,
      "special": true
    },
    {
      "id": 101,
      "content": "95",
      "single_word": false,
      "lstrip": false,
      "rstrip": false,
      "normalized": false,
      "special": true
    },
    {
      "id": 102,
      "content": "96",
      "single_word": false,
      "lstrip": false,
      "rstrip": false,
      "normalized": false,
      "special": true
    },
    {
      "id": 103,
      "content": "97",
      "single_word": false,
      "lstrip": false,
      "rstrip": false,
      "normalized": false,
      "special": true
    },
    {
      "id": 104,
      "content": "98",
      "single_word": false,
      "lstrip": false,
      "rstrip": false,
      "normalized": false,
      "special": true
    },
    {
      "id": 105,
      "content": "99",
      "single_word": false,
      "lstrip": false,
      "rstrip": false,
      "normalized": false,
      "special": true
    },
    {
      "id": 106,
      "content": " 00",
      "single_word": false,
      "lstrip": false,
      "rstrip": false,
      "normalized": false,
      "special": true
    },
    {
      "id": 107,
      "content": " 01",
      "single_word": false,
      "lstrip": false,
      "rstrip": false,
      "normalized": false,
      "special": true
    },
    {
      "id": 108,
      "content": " 02",
      "single_word": false,
      "lstrip": false,
      "rstrip": false,
      "normalized": false,
      "special": true
    },
    {
      "id": 109,
      "content": " 03",
      "single_word": false,
      "lstrip": false,
      "rstrip": false,
      "normalized": false,
      "special": true
    },
    {
      "id": 110,
      "content": " 04",
      "single_word": false,
      "lstrip": false,
      "rstrip": false,
      "normalized": false,
      "special": true
    },
    {
      "id": 111,
      "content": " 05",
      "single_word": false,
      "lstrip": false,
      "rstrip": false,
      "normalized": false,
      "special": true
    },
    {
      "id": 112,
      "content": " 06",
      "single_word": false,
      "lstrip": false,
      "rstrip": false,
      "normalized": false,
      "special": true
    },
    {
      "id": 113,
      "content": " 07",
      "single_word": false,
      "lstrip": false,
      "rstrip": false,
      "normalized": false,
      "special": true
    },
    {
      "id": 114,
      "content": " 08",
      "single_word": false,
      "lstrip": false,
      "rstrip": false,
      "normalized": false,
      "special": true
    },
    {
      "id": 115,
      "content": " 09",
      "single_word": false,
      "lstrip": false,
      "rstrip": false,
      "normalized": false,
      "special": true
    },
    {
      "id": 116,
      "content": " 10",
      "single_word": false,
      "lstrip": false,
      "rstrip": false,
      "normalized": false,
      "special": true
    },
    {
      "id": 117,
      "content": " 11",
      "single_word": false,
      "lstrip": false,
      "rstrip": false,
      "normalized": false,
      "special": true
    },
    {
      "id": 118,
      "content": " 12",
      "single_word": false,
      "lstrip": false,
      "rstrip": false,
      "normalized": false,
      "special": true
    },
    {
      "id": 119,
      "content": " 13",
      "single_word": false,
      "lstrip": false,
      "rstrip": false,
      "normalized": false,
      "special": true
    },
    {
      "id": 120,
      "content": " 14",
      "single_word": false,
      "lstrip": false,
      "rstrip": false,
      "normalized": false,
      "special": true
    },
    {
      "id": 121,
      "content": " 15",
      "single_word": false,
      "lstrip": false,
      "rstrip": false,
      "normalized": false,
      "special": true
    },
    {
      "id": 122,
      "content": " 16",
      "single_word": false,
      "lstrip": false,
      "rstrip": false,
      "normalized": false,
      "special": true
    },
    {
      "id": 123,
      "content": " 17",
      "single_word": false,
      "lstrip": false,
      "rstrip": false,
      "normalized": false,
      "special": true
    },
    {
      "id": 124,
      "content": " 18",
      "single_word": false,
      "lstrip": false,
      "rstrip": false,
      "normalized": false,
      "special": true
    },
    {
      "id": 125,
      "content": " 19",
      "single_word": false,
      "lstrip": false,
      "rstrip": false,
      "normalized": false,
      "special": true
    },
    {
      "id": 126,
      "content": " 20",
      "single_word": false,
      "lstrip": false,
      "rstrip": false,
      "normalized": false,
      "special": true
    },
    {
      "id": 127,
      "content": " 21",
      "single_word": false,
      "lstrip": false,
      "rstrip": false,
      "normalized": false,
      "special": true
    },
    {
      "id": 128,
      "content": " 22",
      "single_word": false,
      "lstrip": false,
      "rstrip": false,
      "normalized": false,
      "special": true
    },
    {
      "id": 129,
      "content": " 23",
      "single_word": false,
      "lstrip": false,
      "rstrip": false,
      "normalized": false,
      "special": true
    },
    {
      "id": 130,
      "content": " 24",
      "single_word": false,
      "lstrip": false,
      "rstrip": false,
      "normalized": false,
      "special": true
    },
    {
      "id": 131,
      "content": " 25",
      "single_word": false,
      "lstrip": false,
      "rstrip": false,
      "normalized": false,
      "special": true
    },
    {
      "id": 132,
      "content": " 26",
      "single_word": false,
      "lstrip": false,
      "rstrip": false,
      "normalized": false,
      "special": true
    },
    {
      "id": 133,
      "content": " 27",
      "single_word": false,
      "lstrip": false,
      "rstrip": false,
      "normalized": false,
      "special": true
    },
    {
      "id": 134,
      "content": " 28",
      "single_word": false,
      "lstrip": false,
      "rstrip": false,
      "normalized": false,
      "special": true
    },
    {
      "id": 135,
      "content": " 29",
      "single_word": false,
      "lstrip": false,
      "rstrip": false,
      "normalized": false,
      "special": true
    },
    {
      "id": 136,
      "content": " 30",
      "single_word": false,
      "lstrip": false,
      "rstrip": false,
      "normalized": false,
      "special": true
    },
    {
      "id": 137,
      "content": " 31",
      "single_word": false,
      "lstrip": false,
      "rstrip": false,
      "normalized": false,
      "special": true
    },
    {
      "id": 138,
      "content": " 32",
      "single_word": false,
      "lstrip": false,
      "rstrip": false,
      "normalized": false,
      "special": true
    },
    {
      "id": 139,
      "content": " 33",
      "single_word": false,
      "lstrip": false,
      "rstrip": false,
      "normalized": false,
      "special": true
    },
    {
      "id": 140,
      "content": " 34",
      "single_word": false,
      "lstrip": false,
      "rstrip": false,
      "normalized": false,
      "special": true
    },
    {
      "id": 141,
      "content": " 35",
      "single_word": false,
      "lstrip": false,
      "rstrip": false,
      "normalized": false,
      "special": true
    },
    {
      "id": 142,
      "content": " 36",
      "single_word": false,
      "lstrip": false,
      "rstrip": false,
      "normalized": false,
      "special": true
    },
    {
      "id": 143,
      "content": " 37",
      "single_word": false,
      "lstrip": false,
      "rstrip": false,
      "normalized": false,
      "special": true
    },
    {
      "id": 144,
      "content": " 38",
      "single_word": false,
      "lstrip": false,
      "rstrip": false,
      "normalized": false,
      "special": true
    },
    {
      "id": 145,
      "content": " 39",
      "single_word": false,
      "lstrip": false,
      "rstrip": false,
      "normalized": false,
      "special": true
    },
    {
      "id": 146,
      "content": " 40",
      "single_word": false,
      "lstrip": false,
      "rstrip": false,
      "normalized": false,
      "special": true
    },
    {
      "id": 147,
      "content": " 41",
      "single_word": false,
      "lstrip": false,
      "rstrip": false,
      "normalized": false,
      "special": true
    },
    {
      "id": 148,
      "content": " 42",
      "single_word": false,
      "lstrip": false,
      "rstrip": false,
      "normalized": false,
      "special": true
    },
    {
      "id": 149,
      "content": " 43",
      "single_word": false,
      "lstrip": false,
      "rstrip": false,
      "normalized": false,
      "special": true
    },
    {
      "id": 150,
      "content": " 44",
      "single_word": false,
      "lstrip": false,
      "rstrip": false,
      "normalized": false,
      "special": true
    },
    {
      "id": 151,
      "content": " 45",
      "single_word": false,
      "lstrip": false,
      "rstrip": false,
      "normalized": false,
      "special": true
    },
    {
      "id": 152,
      "content": " 46",
      "single_word": false,
      "lstrip": false,
      "rstrip": false,
      "normalized": false,
      "special": true
    },
    {
      "id": 153,
      "content": " 47",
      "single_word": false,
      "lstrip": false,
      "rstrip": false,
      "normalized": false,
      "special": true
    },
    {
      "id": 154,
      "content": " 48",
      "single_word": false,
      "lstrip": false,
      "rstrip": false,
      "normalized": false,
      "special": true
    },
    {
      "id": 155,
      "content": " 49",
      "single_word": false,
      "lstrip": false,
      "rstrip": false,
      "normalized": false,
      "special": true
    },
    {
      "id": 156,
      "content": " 50",
      "single_word": false,
      "lstrip": false,
      "rstrip": false,
      "normalized": false,
      "special": true
    },
    {
      "id": 157,
      "content": " 51",
      "single_word": false,
      "lstrip": false,
      "rstrip": false,
      "normalized": false,
      "special": true
    },
    {
      "id": 158,
      "content": " 52",
      "single_word": false,
      "lstrip": false,
      "rstrip": false,
      "normalized": false,
      "special": true
    },
    {
      "id": 159,
      "content": " 53",
      "single_word": false,
      "lstrip": false,
      "rstrip": false,
      "normalized": false,
      "special": true
    },
    {
      "id": 160,
      "content": " 54",
      "single_word": false,
      "lstrip": false,
      "rstrip": false,
      "normalized": false,
      "special": true
    },
    {
      "id": 161,
      "content": " 55",
      "single_word": false,
      "lstrip": false,
      "rstrip": false,
      "normalized": false,
      "special": true
    },
    {
      "id": 162,
      "content": " 56",
      "single_word": false,
      "lstrip": false,
      "rstrip": false,
      "normalized": false,
      "special": true
    },
    {
      "id": 163,
      "content": " 57",
      "single_word": false,
      "lstrip": false,
      "rstrip": false,
      "normalized": false,
      "special": true
    },
    {
      "id": 164,
      "content": " 58",
      "single_word": false,
      "lstrip": false,
      "rstrip": false,
      "normalized": false,
      "special": true
    },
    {
      "id": 165,
      "content": " 59",
      "single_word": false,
      "lstrip": false,
      "rstrip": false,
      "normalized": false,
      "special": true
    },
    {
      "id": 166,
      "content": " 60",
      "single_word": false,
      "lstrip": false,
      "rstrip": false,
      "normalized": false,
      "special": true
    },
    {
      "id": 167,
      "content": " 61",
      "single_word": false,
      "lstrip": false,
      "rstrip": false,
      "normalized": false,
      "special": true
    },
    {
      "id": 168,
      "content": " 62",
      "single_word": false,
      "lstrip": false,
      "rstrip": false,
      "normalized": false,
      "special": true
    },
    {
      "id": 169,
      "content": " 63",
      "single_word": false,
      "lstrip": false,
      "rstrip": false,
      "normalized": false,
      "special": true
    },
    {
      "id": 170,
      "content": " 64",
      "single_word": false,
      "lstrip": false,
      "rstrip": false,
      "normalized": false,
      "special": true
    },
    {
      "id": 171,
      "content": " 65",
      "single_word": false,
      "lstrip": false,
      "rstrip": false,
      "normalized": false,
      "special": true
    },
    {
      "id": 172,
      "content": " 66",
      "single_word": false,
      "lstrip": false,
      "rstrip": false,
      "normalized": false,
      "special": true
    },
    {
      "id": 173,
      "content": " 67",
      "single_word": false,
      "lstrip": false,
      "rstrip": false,
      "normalized": false,
      "special": true
    },
    {
      "id": 174,
      "content": " 68",
      "single_word": false,
      "lstrip": false,
      "rstrip": false,
      "normalized": false,
      "special": true
    },
    {
      "id": 175,
      "content": " 69",
      "single_word": false,
      "lstrip": false,
      "rstrip": false,
      "normalized": false,
      "special": true
    },
    {
      "id": 176,
      "content": " 70",
      "single_word": false,
      "lstrip": false,
      "rstrip": false,
      "normalized": false,
      "special": true
    },
    {
      "id": 177,
      "content": " 71",
      "single_word": false,
      "lstrip": false,
      "rstrip": false,
      "normalized": false,
      "special": true
    },
    {
      "id": 178,
      "content": " 72",
      "single_word": false,
      "lstrip": false,
      "rstrip": false,
      "normalized": false,
      "special": true
    },
    {
      "id": 179,
      "content": " 73",
      "single_word": false,
      "lstrip": false,
      "rstrip": false,
      "normalized": false,
      "special": true
    },
    {
      "id": 180,
      "content": " 74",
      "single_word": false,
      "lstrip": false,
      "rstrip": false,
      "normalized": false,
      "special": true
    },
    {
      "id": 181,
      "content": " 75",
      "single_word": false,
      "lstrip": false,
      "rstrip": false,
      "normalized": false,
      "special": true
    },
    {
      "id": 182,
      "content": " 76",
      "single_word": false,
      "lstrip": false,
      "rstrip": false,
      "normalized": false,
      "special": true
    },
    {
      "id": 183,
      "content": " 77",
      "single_word": false,
      "lstrip": false,
      "rstrip": false,
      "normalized": false,
      "special": true
    },
    {
      "id": 184,
      "content": " 78",
      "single_word": false,
      "lstrip": false,
      "rstrip": false,
      "normalized": false,
      "special": true
    },
    {
      "id": 185,
      "content": " 79",
      "single_word": false,
      "lstrip": false,
      "rstrip": false,
      "normalized": false,
      "special": true
    },
    {
      "id": 186,
      "content": " 80",
      "single_word": false,
      "lstrip": false,
      "rstrip": false,
      "normalized": false,
      "special": true
    },
    {
      "id": 187,
      "content": " 81",
      "single_word": false,
      "lstrip": false,
      "rstrip": false,
      "normalized": false,
      "special": true
    },
    {
      "id": 188,
      "content": " 82",
      "single_word": false,
      "lstrip": false,
      "rstrip": false,
      "normalized": false,
      "special": true
    },
    {
      "id": 189,
      "content": " 83",
      "single_word": false,
      "lstrip": false,
      "rstrip": false,
      "normalized": false,
      "special": true
    },
    {
      "id": 190,
      "content": " 84",
      "single_word": false,
      "lstrip": false,
      "rstrip": false,
      "normalized": false,
      "special": true
    },
    {
      "id": 191,
      "content": " 85",
      "single_word": false,
      "lstrip": false,
      "rstrip": false,
      "normalized": false,
      "special": true
    },
    {
      "id": 192,
      "content": " 86",
      "single_word": false,
      "lstrip": false,
      "rstrip": false,
      "normalized": false,
      "special": true
    },
    {
      "id": 193,
      "content": " 87",
      "single_word": false,
      "lstrip": false,
      "rstrip": false,
      "normalized": false,
      "special": true
    },
    {
      "id": 194,
      "content": " 88",
      "single_word": false,
      "lstrip": false,
      "rstrip": false,
      "normalized": false,
      "special": true
    },
    {
      "id": 195,
      "content": " 89",
      "single_word": false,
      "lstrip": false,
      "rstrip": false,
      "normalized": false,
      "special": true
    },
    {
      "id": 196,
      "content": " 90",
      "single_word": false,
      "lstrip": false,
      "rstrip": false,
      "normalized": false,
      "special": true
    },
    {
      "id": 197,
      "content": " 91",
      "single_word": false,
      "lstrip": false,
      "rstrip": false,
      "normalized": false,
      "special": true
    },
    {
      "id": 198,
      "content": " 92",
      "single_word": false,
      "lstrip": false,
      "rstrip": false,
      "normalized": false,
      "special": true
    },
    {
      "id": 199,
      "content": " 93",
      "single_word": false,
      "lstrip": false,
      "rstrip": false,
      "normalized": false,
      "special": true
    },
    {
      "id": 200,
      "content": " 94",
      "single_word": false,
      "lstrip": false,
      "rstrip": false,
      "normalized": false,
      "special": true
    },
    {
      "id": 201,
      "content": " 95",
      "single_word": false,
      "lstrip": false,
      "rstrip": false,
      "normalized": false,
      "special": true
    },
    {
      "id": 202,
      "content": " 96",
      "single_word": false,
      "lstrip": false,
      "rstrip": false,
      "normalized": false,
      "special": true
    },
    {
      "id": 203,
      "content": " 97",
      "single_word": false,
      "lstrip": false,
      "rstrip": false,
      "normalized": false,
      "special": true
    },
    {
      "id": 204,
      "content": " 98",
      "single_word": false,
      "lstrip": false,
      "rstrip": false,
      "normalized": false,
      "special": true
    },
    {
      "id": 205,
      "content": " 99",
      "single_word": false,
      "lstrip": false,
      "rstrip": false,
      "normalized": false,
      "special": true
    }
  ],
  "normalizer": null,
  "pre_tokenizer": {
    "type": "Sequence",
    "pretokenizers": [
      {
        "type": "Split",
        "pattern": {
          "String": "\\d"
        },
        "behavior": "Isolated",
        "invert": false
      },
      {
        "type": "ByteLevel",
        "add_prefix_space": false,
        "trim_offsets": true,
        "use_regex": true
      }
    ]
  },
  "post_processor": null,
  "decoder": {
    "type": "ByteLevel",
    "add_prefix_space": true,
    "trim_offsets": true,
    "use_regex": true
  },
  "model": {
    "type": "BPE",
    "dropout": null,
    "unk_token": null,
    "continuing_subword_prefix": null,
    "end_of_word_suffix": null,
    "fuse_unk": false,
    "byte_fallback": false,
    "ignore_merges": false,
    "vocab": {
      "<|endoftext|>": 0,
      "  ": 1,
      "    ": 2,
      "        ": 3,
      "            ": 4,
      "                ": 5,
      "00": 6,
      "01": 7,
      "02": 8,
      "03": 9,
      "04": 10,
      "05": 11,
      "06": 12,
      "07": 13,
      "08": 14,
      "09": 15,
      "10": 16,
      "11": 17,
      "12": 18,
      "13": 19,
      "14": 20,
      "15": 21,
      "16": 22,
      "17": 23,
      "18": 24,
      "19": 25,
      "20": 26,
      "21": 27,
      "22": 28,
      "23": 29,
      "24": 30,
      "25": 31,
      "26": 32,
      "27": 33,
      "28": 34,
      "29": 35,
      "30": 36,
      "31": 37,
      "32": 38,
      "33": 39,
      "34": 40,
      "35": 41,
      "36": 42,
      "37": 43,
      "38": 44,
      "39": 45,
      "40": 46,
      "41": 47,
      "42": 48,
      "43": 49,
      "44": 50,
      "45": 51,
      "46": 52,
      "47": 53,
      "48": 54,
      "49": 55,
      "50": 56,
      "51": 57,
      "52": 58,
      "53": 59,
      "54": 60,
      "55": 61,
      "56": 62,
      "57": 63,
      "58": 64,
      "59": 65,
      "60": 66,
      "61": 67,
      "62": 68,
      "63": 69,
      "64": 70,
      "65": 71,
      "66": 72,
      "67": 73,
      "68": 74,
      "69": 75,
      "70": 76,
      "71": 77,
      "72": 78,
      "73": 79,
      "74": 80,
      "75": 81,
      "76": 82,
      "77": 83,
      "78": 84,
      "79": 85,
      "80": 86,
      "81": 87,
      "82": 88,
      "83": 89,
      "84": 90,
      "85": 91,
      "86": 92,
      "87": 93,
      "88": 94,
      "89": 95,
      "90": 96,
      "91": 97,
      "92": 98,
      "93": 99,
      "94": 100,
      "95": 101,
      "96": 102,
      "97": 103,
      "98": 104,
      "99": 105,
      " 00": 106,
      " 01": 107,
      " 02": 108,
      " 03": 109,
      " 04": 110,
      " 05": 111,
      " 06": 112,
      " 07": 113,
      " 08": 114,
      " 09": 115,
      " 10": 116,
      " 11": 117,
      " 12": 118,
      " 13": 119,
      " 14": 120,
      " 15": 121,
      " 16": 122,
      " 17": 123,
      " 18": 124,
      " 19": 125,
      " 20": 126,
      " 21": 127,
      " 22": 128,
      " 23": 129,
      " 24": 130,
      " 25": 131,
      " 26": 132,
      " 27": 133,
      " 28": 134,
      " 29": 135,
      " 30": 136,
      " 31": 137,
      " 32": 138,
      " 33": 139,
      " 34": 140,
      " 35": 141,
      " 36": 142,
      " 37": 143,
      " 38": 144,
      " 39": 145,
      " 40": 146,
      " 41": 147,
      " 42": 148,
      " 43": 149,
      " 44": 150,
      " 45": 151,
      " 46": 152,
      " 47": 153,
      " 48": 154,
      " 49": 155,
      " 50": 156,
      " 51": 157,
      " 52": 158,
      " 53": 159,
      " 54": 160,
      " 55": 161,
      " 56": 162,
      " 57": 163,
      " 58": 164,
      " 59": 165,
      " 60": 166,
      " 61": 167,
      " 62": 168,
      " 63": 169,
      " 64": 170,
      " 65": 171,
      " 66": 172,
      " 67": 173,
      " 68": 174,
      " 69": 175,
      " 70": 176,
      " 71": 177,
      " 72": 178,
      " 73": 179,
      " 74": 180,
      " 75": 181,
      " 76": 182,
      " 77": 183,
      " 78": 184,
      " 79": 185,
      " 80": 186,
      " 81": 187,
      " 82": 188,
      " 83": 189,
      " 84": 190,
      " 85": 191,
      " 86": 192,
      " 87": 193,
      " 88": 194,
      " 89": 195,
      " 90": 196,
      " 91": 197,
      " 92": 198,
      " 93": 199,
      " 94": 200,
      " 95": 201,
      " 96": 202,
      " 97": 203,
      " 98": 204,
      " 99": 205,
      "!": 206,
      "\"": 207,
      "#": 208,
      "$": 209,
      "%": 210,
      "&": 211,
      "'": 212,
      "(": 213,
      ")": 214,
      "*": 215,
      "+": 216,
      ",": 217,
      "-": 218,
      ".": 219,
      "/": 220,
      "0": 221,
      "1": 222,
      "2": 223,
      "3": 224,
      "4": 225,
      "5": 226,
      "6": 227,
      "7": 228,
      "8": 229,
      "9": 230,
      ":": 231,
      ";": 232,
      "<": 233,
      "=": 234,
      ">": 235,
      "?": 236,
      "@": 237,
      "A": 238,
      "B": 239,
      "C": 240,
      "D": 241,
      "E": 242,
      "F": 243,
      "G": 244,
      "H": 245,
      "I": 246,
      "J": 247,
      "K": 248,
      "L": 249,
      "M": 250,
      "N": 251,
      "O": 252,
      "P": 253,
      "Q": 254,
      "R": 255,
      "S": 256,
      "T": 257,
      "U": 258,
      "V": 259,
      "W": 260,
      "X": 261,
      "Y": 262,
      "Z": 263,
      "[": 264,
      "\\": 265,
      "]": 266,
      "^": 267,
      "_": 268,
      "`": 269,
      "a": 270,
      "b": 271,
      "c": 272,
      "d": 273,
      "e": 274,
      "f": 275,
      "g": 276,
      "h": 277,
      "i": 278,
      "j": 279,
      "k": 280,
      "l": 281,
      "m": 282,
      "n": 283,
      "o": 284,
      "p": 285,
      "q": 286,
      "r": 287,
      "s": 288,
      "t": 289,
      "u": 290,
      "v": 291,
      "w": 292,
      "x": 293,
      "y": 294,
      "z": 295,
      "{": 296,
      "|": 297,
      "}": 298,
      "~": 299,
      "¡": 300,
      "¢": 301,
      "£": 302,
      "¤": 303,
      "¥": 304,
      "¦": 305,
      "§": 306,
      "¨": 307,
      "©": 308,
      "ª": 309,
      "«": 310,
      "¬": 311,
      "®": 312,
      "¯": 313,
      "°": 314,
      "±": 315,
      "²": 316,
      "³": 317,
      "´": 318,
      "µ": 319,
      "¶": 320,
      "·": 321,
      "¸": 322,
      "¹": 323,
      "º": 324,
      "»": 325,
      "¼": 326,
      "½": 327,
      "¾": 328,
      "¿": 329,
      "Â": 330,
      "Ã": 331,
      "Ä": 332,
      "Å": 333,
      "Æ": 334,
      "Ç": 335,
      "È": 336,
      "É": 337,
      "Ê": 338,
      "Ë": 339,
      "Ì": 340,
      "Í": 341,
      "Î": 342,
      "Ï": 343,
      "Ð": 344,
      "Ñ": 345,
      "Ò": 346,
      "Ó": 347,
      "Ô": 348,
      "Õ": 349,
      "Ö": 350,
      "×": 351,
      "Ø": 352,
      "Ù": 353,
      "Ú": 354,
      "Û": 355,
      "Ü": 356,
      "à": 357,
      "á": 358,
      "â": 359,
      "ã": 360,
      "ä": 361,
      "å": 362,
      "æ": 363,
      "ç": 364,
      "è": 365,
      "é": 366,
      "ê": 367,
      "ë": 368,
      "ì": 369,
      "í": 370,
      "î": 371,
      "ï": 372,
      "ð": 373,
      "ô": 374,
      "ĉ": 375,
      "Ċ": 376,
      "č": 377,
      "Ġ": 378,
      "Ģ": 379,
      "ģ": 380,
      "Ĥ": 381,
      "ĥ": 382,
      "Ħ": 383,
      "ħ": 384,
      "Ĩ": 385,
      "ĩ": 386,
      "Ī": 387,
      "ī": 388,
      "Ĭ": 389,
      "ĭ": 390,
      "Į": 391,
      "į": 392,
      "İ": 393,
      "ı": 394,
      "Ĳ": 395,
      "ĳ": 396,
      "Ĵ": 397,
      "ĵ": 398,
      "Ķ": 399,
      "ķ": 400,
      "ĸ": 401,
      "Ĺ": 402,
      "ĺ": 403,
      "Ļ": 404,
      "ļ": 405,
      "Ľ": 406,
      "ľ": 407,
      "Ŀ": 408,
      "ŀ": 409,
      "Ł": 410,
      "ł": 411,
      "Ń": 412,
      "in": 413,
      "Ġt": 414,
      "Ġa": 415,
      "er": 416,
      "on": 417,
      "es": 418,
      "en": 419,
      "ti": 420,
      "Ġth": 421,
      "ing": 422,
      "Ġs": 423,
      "Ġc": 424,
      "čĊ": 425,
      "or": 426,
      "al": 427,
      "nd": 428,
      "re": 429,
      "Ġp": 430,
      "Ġthe": 431,
      "ou": 432,
      "at": 433,
      "it": 434,
      "ed": 435,
      "Ġw": 436,
      "Ġf": 437,
      "Ġo": 438,
      "an": 439,
      "tion": 440,
      "ar": 441,
      "Ġin": 442,
      "is": 443,
      "Ġd": 444,
      "Ġand": 445,
      "Ġm": 446,
      "Ġb": 447,
      "le": 448,
      "Ġto": 449,
      "Ġe": 450,
      "ro": 451,
      "Ġof": 452,
      "ic": 453,
      "ent": 454,
      "Ġh": 455,
      "om": 456,
      "st": 457,
      "ly": 458,
      "ac": 459,
      "ec": 460,
      "ation": 461,
      "Ġre": 462,
      "ve": 463,
      "et": 464,
      "Ġl": 465,
      "id": 466,
      "as": 467,
      "il": 468,
      "Ġu": 469,
      "Ġn": 470,
      "ig": 471,
      "ur": 472,
      "ol": 473,
      "ce": 474,
      "ow": 475,
      "im": 476,
      "ers": 477,
      "--": 478,
      "el": 479,
      "ess": 480,
      "Ġg": 481,
      "Ġcon": 482,
      "th": 483,
      "ul": 484,
      "Ġr": 485,
      "our": 486,
      "Ġst": 487,
      "Ġy": 488,
      "ir": 489,
      "Ġpro": 490,
      "ĠT": 491,
      "ver": 492,
      "Ġfor": 493,
      "Ġex": 494,
      "Ġwh": 495,
      "ith": 496,
      "am": 497,
      "ts": 498,
      "em": 499,
      "qu": 500,
      "ĠA": 501,
      "uc": 502,
      "ate": 503,
      "Ġon": 504,
      "Ġcom": 505,
      "ĠS": 506,
      "ay": 507,
      "ab": 508,
      "Ġv": 509,
      "ter": 510,
      "ad": 511,
      "Ġwith": 512,
      "ag": 513,
      "ity": 514,
      "us": 515,
      "os": 516,
      "pp": 517,
      "if": 518,
      "ain": 519,
      "Ġen": 520,
      "ĠC": 521,
      "ri": 522,
      "tic": 523,
      "Ġas": 524,
      "Ġor": 525,
      "ment": 526,
      "Ġal": 527,
      "ĠI": 528,
      "ut": 529,
      "Ġan": 530,
      "igh": 531,
      "ion": 532,
      "Ġit": 533,
      "Ġbe": 534,
      "ĠTh": 535,
      "and": 536,
      "ot": 537,
      "Ġthat": 538,
      "----": 539,
      "um": 540,
      "out": 541,
      "ke": 542,
      "pl": 543,
      "Ġle": 544,
      "'s": 545,
      "oc": 546,
      "Ġch": 547,
      "un": 548,
      "for": 549,
      "Ġac": 550,
      "ations": 551,
      "tive": 552,
      "od": 553,
      "Ġis": 554,
      "ep": 555,
      "ere": 556,
      "rou": 557,
      "ĠB": 558,
      "iz": 559,
      "Ġ(": 560,
      "ting": 561,
      "Ġtr": 562,
      "ch": 563,
      "iv": 564,
      "ĠP": 565,
      "ure": 566,
      "Ġsh": 567,
      "ĠM": 568,
      "Ġint": 569,
      "ies": 570,
      "ap": 571,
      "Ġres": 572,
      "tions": 573,
      "Ġwe": 574,
      "Ġyou": 575,
      "gh": 576,
      "Ġyour": 577,
      "Ġcomp": 578,
      "all": 579,
      "ust": 580,
      "op": 581,
      "ist": 582,
      "ance": 583,
      "Ġad": 584,
      "Ġus": 585,
      "Ġim": 586,
      "ine": 587,
      "ous": 588,
      "ally": 589,
      "pec": 590,
      "Ġtheir": 591,
      "ĠE": 592,
      "Ġde": 593,
      "end": 594,
      "ud": 595,
      "Ġne": 596,
      "ĠF": 597,
      "ant": 598,
      "ld": 599,
      "per": 600,
      "ese": 601,
      "ĠW": 602,
      "ĠH": 603,
      "ill": 604,
      "iti": 605,
      "Ġby": 606,
      "ard": 607,
      "ip": 608,
      "rom": 609,
      "Ġun": 610,
      "Ġthis": 611,
      "Ġcan": 612,
      "ial": 613,
      "Ġpr": 614,
      "ore": 615,
      "Ġse": 616,
      "og": 617,
      "king": 618,
      "est": 619,
      "ĠD": 620,
      "able": 621,
      "ĠR": 622,
      "ating": 623,
      "Ġcont": 624,
      "Ġapp": 625,
      "ence": 626,
      "are": 627,
      "ach": 628,
      "enti": 629,
      "ight": 630,
      "Ġab": 631,
      "ign": 632,
      "Ġat": 633,
      "ide": 634,
      "Ġpl": 635,
      "ther": 636,
      "fer": 637,
      "ge": 638,
      "ome": 639,
      "Ġfrom": 640,
      "ort": 641,
      "Ġinc": 642,
      "Ġdis": 643,
      "ans": 644,
      "ents": 645,
      "ong": 646,
      "Ġstr": 647,
      "ĠL": 648,
      "Ġwor": 649,
      "ces": 650,
      "Ġsu": 651,
      "âĢ": 652,
      "Ġhe": 653,
      "ue": 654,
      "nder": 655,
      "ile": 656,
      "Ġimp": 657,
      "act": 658,
      "ated": 659,
      "av": 660,
      "ens": 661,
      "low": 662,
      "cess": 663,
      "Ġare": 664,
      "age": 665,
      "eth": 666,
      "ff": 667,
      "form": 668,
      "ath": 669,
      "ast": 670,
      "ind": 671,
      "ib": 672,
      "Ġthese": 673,
      "Ġcons": 674,
      "Ġem": 675,
      "rough": 676,
      "Ġthey": 677,
      "Ġme": 678,
      "vel": 679,
      "Ġpar": 680,
      "Ġinto": 681,
      "duc": 682,
      "Ġ$": 683,
      "ves": 684,
      "--------": 685,
      "ost": 686,
      "ors": 687,
      "ĠO": 688,
      "ike": 689,
      "Ġsp": 690,
      "ĠG": 691,
      "**": 692,
      "ks": 693,
      "ical": 694,
      "Ġj": 695,
      "ual": 696,
      "ities": 697,
      "Ġsuc": 698,
      "ould": 699,
      "Ġ1": 700,
      "ful": 701,
      "Ġev": 702,
      "uring": 703,
      "ition": 704,
      "Ġour": 705,
      "Ġinter": 706,
      "Ġk": 707,
      "ari": 708,
      "Ġunder": 709,
      "Ġcl": 710,
      "ary": 711,
      "ire": 712,
      "Ġcomm": 713,
      "Ġar": 714,
      "ey": 715,
      "ose": 716,
      "Ġits": 717,
      "ress": 718,
      "Ġind": 719,
      "ra": 720,
      "ments": 721,
      "lec": 722,
      "Ġup": 723,
      "ĠN": 724,
      "ific": 725,
      "ons": 726,
      "ive": 727,
      "Ġabout": 728,
      "ility": 729,
      "ie": 730,
      "Ġman": 731,
      "Ġbet": 732,
      "Ġbo": 733,
      "Ġpre": 734,
      "ect": 735,
      "Ġha": 736,
      "Ġcre": 737,
      "Ġ-": 738,
      "ack": 739,
      "ell": 740,
      "Ġlike": 741,
      "ĠU": 742,
      "Ġ\"": 743,
      "Ġqu": 744,
      "ear": 745,
      "Ġper": 746,
      "ang": 747,
      "oun": 748,
      "Ġthrough": 749,
      "Ġro": 750,
      "ace": 751,
      "Ġthem": 752,
      "Ġwhen": 753,
      "ich": 754,
      "over": 755,
      "Ġ2": 756,
      "Ġma": 757,
      "les": 758,
      "Ġhow": 759,
      "ati": 760,
      "tim": 761,
      "ech": 762,
      "ĠĠ": 763,
      "Ġtim": 764,
      "tain": 765,
      "Ġ=": 766,
      "ential": 767,
      "ĠIn": 768,
      "Ġover": 769,
      "ass": 770,
      "ple": 771,
      "Ġout": 772,
      "we": 773,
      "Ġprov": 774,
      "ures": 775,
      "stand": 776,
      "ning": 777,
      "ond": 778,
      "Ġdes": 779,
      "Ġrel": 780,
      "Ġval": 781,
      "ber": 782,
      "ving": 783,
      "Ġinv": 784,
      "ative": 785,
      "ail": 786,
      "rac": 787,
      "now": 788,
      "Ġall": 789,
      "ates": 790,
      "Ġrec": 791,
      "Ġcol": 792,
      "Ġdisc": 793,
      "Ġrem": 794,
      "ound": 795,
      "ry": 796,
      "Ġsc": 797,
      "Ġfe": 798,
      "ted": 799,
      "ĠThis": 800,
      "ult": 801,
      "eg": 802,
      "oo": 803,
      "Ġam": 804,
      "Ġins": 805,
      "ater": 806,
      "ular": 807,
      "ings": 808,
      "ite": 809,
      "ish": 810,
      "Ġsuch": 811,
      "Ġexpl": 812,
      "Ġpos": 813,
      "round": 814,
      "Ġreg": 815,
      "Ġwhile": 816,
      "ween": 817,
      "Ġop": 818,
      "Ġexper": 819,
      "very": 820,
      "Ġsome": 821,
      "Ġso": 822,
      "als": 823,
      "ex": 824,
      "ough": 825,
      "enc": 826,
      "Ġnum": 827,
      "In": 828,
      "res": 829,
      "oin": 830,
      "Th": 831,
      "Ġwill": 832,
      "ever": 833,
      "Ġbetween": 834,
      "Ġ\\": 835,
      "Ġmore": 836,
      "eng": 837,
      "ions": 838,
      "Ġvari": 839,
      "ider": 840,
      "iqu": 841,
      "Ġrep": 842,
      "Ġdif": 843,
      "ays": 844,
      "ame": 845,
      "Ġhave": 846,
      "ues": 847,
      "row": 848,
      "echn": 849,
      "lic": 850,
      "Ġadd": 851,
      "ark": 852,
      "anc": 853,
      "'t": 854,
      "Ġequ": 855,
      "one": 856,
      "Ġser": 857,
      "ll": 858,
      "ase": 859,
      "Ġone": 860,
      "ward": 861,
      "Ġtime": 862,
      "ĠâĢ": 863,
      "hip": 864,
      "olog": 865,
      "rib": 866,
      "ms": 867,
      "ĠSt": 868,
      "Ġacc": 869,
      "Ġincl": 870,
      "Ġsy": 871,
      "ric": 872,
      "Ġthere": 873,
      ").": 874,
      "Ġhel": 875,
      "ord": 876,
      "Ġspec": 877,
      "Ġexp": 878,
      "Ġsign": 879,
      "ĠThe": 880,
      "Ġdec": 881,
      "Ġtrans": 882,
      "elf": 883,
      "Ġbec": 884,
      "tical": 885,
      "se": 886,
      "ten": 887,
      "Ġknow": 888,
      "ia": 889,
      "Ġdo": 890,
      "Ġass": 891,
      "Ġnot": 892,
      "ory": 893,
      "Ġunderstand": 894,
      "ys": 895,
      "Ġbut": 896,
      "ruc": 897,
      "ĠJ": 898,
      "Ġher": 899,
      "Ġwas": 900,
      "Ġdiffer": 901,
      "Ġwhere": 902,
      "Ġmo": 903,
      "tiv": 904,
      "Ġtw": 905,
      "velop": 906,
      "Ġwhich": 907,
      "Ġinst": 908,
      "Ġfun": 909,
      "Ġtechn": 910,
      "ower": 911,
      "ĠWh": 912,
      "ether": 913,
      "its": 914,
      "Ġhelp": 915,
      "Ġboth": 916,
      "ences": 917,
      "Ġevery": 918,
      "Ġlear": 919,
      "Ġother": 920,
      "Ġany": 921,
      "St": 922,
      "ak": 923,
      "Ġeff": 924,
      "Ġens": 925,
      "Ġcommun": 926,
      "ize": 927,
      "ĠBy": 928,
      "ivid": 929,
      "Ġpers": 930,
      "Ġag": 931,
      "Ġwithin": 932,
      "ty": 933,
      "ss": 934,
      "Ġsim": 935,
      "Ġinclud": 936,
      "Ġset": 937,
      "Ġexam": 938,
      "fore": 939,
      "ood": 940,
      "ased": 941,
      "ild": 942,
      "Ġhigh": 943,
      "ines": 944,
      "ub": 945,
      "Ġadv": 946,
      "pport": 947,
      "ience": 948,
      "##": 949,
      "ved": 950,
      "ne": 951,
      "Ġthan": 952,
      "irst": 953,
      "cl": 954,
      "Ġsol": 955,
      "ĠâĢĵ": 956,
      "Ġnew": 957,
      "ement": 958,
      "pt": 959,
      "Ġneed": 960,
      "),": 961,
      "Ġrequ": 962,
      "Ġwho": 963,
      "Ġappro": 964,
      "ice": 965,
      "ise": 966,
      "Ġno": 967,
      "Ġob": 968,
      "ateg": 969,
      "oy": 970,
      "ef": 971,
      "Ġhas": 972,
      "Ġduring": 973,
      "lex": 974,
      "Ġph": 975,
      "tern": 976,
      "art": 977,
      "Ġlet": 978,
      "ability": 979,
      "Ġif": 980,
      "so": 981,
      "Ġconsider": 982,
      "Ġhis": 983,
      "Step": 984,
      "Ġlead": 985,
      "Ġcould": 986,
      "Ġwhat": 987,
      "ĠCh": 988,
      "ake": 989,
      "Ġeach": 990,
      "Ġfunc": 991,
      "Ġgr": 992,
      "Ġform": 993,
      "Ġmay": 994,
      "Ġsec": 995,
      "Ġtwo": 996,
      "stem": 997,
      "Ġprovid": 998,
      "Ġpot": 999,
      "led": 1000,
      "ci": 1001,
      "Ġstud": 1002,
      "Ġdevelop": 1003,
      "gan": 1004,
      "Ġreal": 1005,
      "Ġinvol": 1006,
      "ently": 1007,
      "alth": 1008,
      "ĠY": 1009,
      "Ġsub": 1010,
      "ness": 1011,
      "Ġ+": 1012,
      "yp": 1013,
      "ering": 1014,
      "Ġsm": 1015,
      "ible": 1016,
      "Ġusing": 1017,
      "Ġprocess": 1018,
      "Ġdet": 1019,
      "ational": 1020,
      "Ġproduc": 1021,
      "Ġco": 1022,
      "own": 1023,
      "ĠHow": 1024,
      "Ġvarious": 1025,
      "ct": 1026,
      "erm": 1027,
      "ized": 1028,
      "Ġindivid": 1029,
      "Ġeng": 1030,
      "Ġeven": 1031,
      "Ġgen": 1032,
      "old": 1033,
      "ution": 1034,
      "ree": 1035,
      "Ġalso": 1036,
      "Ġmy": 1037,
      "Ġprac": 1038,
      "ĠK": 1039,
      "ici": 1040,
      "ble": 1041,
      "Ġmod": 1042,
      "Ġallow": 1043,
      "Ġindividual": 1044,
      "Ġmain": 1045,
      "ead": 1046,
      "ollow": 1047,
      "ends": 1048,
      "ft": 1049,
      "Ġchall": 1050,
      "izing": 1051,
      "Ġbr": 1052,
      "Ġoff": 1053,
      "Ġgu": 1054,
      "Ġsk": 1055,
      "aus": 1056,
      "fter": 1057,
      "ount": 1058,
      "Ġfind": 1059,
      "----------------": 1060,
      "Ġsur": 1061,
      "Ġdist": 1062,
      "\\_": 1063,
      "Ġpres": 1064,
      "ights": 1065,
      "Ġbu": 1066,
      "Ġ3": 1067,
      "ĠIt": 1068,
      "==": 1069,
      "Ġsignific": 1070,
      "ality": 1071,
      "ven": 1072,
      "ph": 1073,
      "Ġprom": 1074,
      "ross": 1075,
      "Ġthose": 1076,
      "Ġke": 1077,
      "ulti": 1078,
      "Ġsa": 1079,
      "Ġplay": 1080,
      "Ġte": 1081,
      "bers": 1082,
      "erg": 1083,
      "Ġbl": 1084,
      "Ġincre": 1085,
      "Ġgo": 1086,
      "other": 1087,
      "ices": 1088,
      "Ġloc": 1089,
      "Ġwork": 1090,
      "Ġcur": 1091,
      "ange": 1092,
      "Ġpartic": 1093,
      "Ġsystem": 1094,
      "ext": 1095,
      "ata": 1096,
      "Ġdel": 1097,
      "ĠV": 1098,
      "Ġsoc": 1099,
      "wn": 1100,
      "Ġfin": 1101,
      "ily": 1102,
      "Ġfollow": 1103,
      "Ġext": 1104,
      "iness": 1105,
      "aking": 1106,
      "Ġinf": 1107,
      "ages": 1108,
      "ately": 1109,
      "wor": 1110,
      "ural": 1111,
      "ĠAs": 1112,
      "Ġcare": 1113,
      "ĠAd": 1114,
      "Ġpol": 1115,
      "Ġhealth": 1116,
      "por": 1117,
      "Ġrepres": 1118,
      "Ġdem": 1119,
      "Ġdesign": 1120,
      "usion": 1121,
      "wards": 1122,
      "urther": 1123,
      "arm": 1124,
      "ency": 1125,
      "aging": 1126,
      "ocus": 1127,
      "Ġinform": 1128,
      "ique": 1129,
      "ective": 1130,
      "ling": 1131,
      "Ġdiv": 1132,
      "Ġpotential": 1133,
      "ands": 1134,
      "Ġstrateg": 1135,
      "ern": 1136,
      "ps": 1137,
      "ances": 1138,
      "Ġconn": 1139,
      "Ġprof": 1140,
      "tics": 1141,
      "Ġgrow": 1142,
      "Ġpoin": 1143,
      "ets": 1144,
      "Ġref": 1145,
      "Ġmulti": 1146,
      "Ġmight": 1147,
      "Ġresp": 1148,
      "ared": 1149,
      "vers": 1150,
      "ob": 1151,
      "pect": 1152,
      "Ġpe": 1153,
      "lect": 1154,
      "ying": 1155,
      "ĠEx": 1156,
      "Ġunderstanding": 1157,
      "ĠFor": 1158,
      "Ġconf": 1159,
      "Ġback": 1160,
      "Ġ&": 1161,
      "oring": 1162,
      "ication": 1163,
      "ics": 1164,
      "ook": 1165,
      "Ġcontin": 1166,
      "Ġvis": 1167,
      "Ġimport": 1168,
      "Ġworld": 1169,
      "Ġdifferent": 1170,
      "Ġshe": 1171,
      "Ġess": 1172,
      "arg": 1173,
      "onal": 1174,
      "ĠThese": 1175,
      "til": 1176,
      "Ġenc": 1177,
      "tit": 1178,
      "Ġbefore": 1179,
      "Ġsee": 1180,
      "Ġaround": 1181,
      "Ġfl": 1182,
      "iting": 1183,
      "ade": 1184,
      "Ġfunction": 1185,
      "Ġx": 1186,
      "Ġfac": 1187,
      "Ġmat": 1188,
      "Ġchalleng": 1189,
      "itions": 1190,
      "Ġsignificant": 1191,
      "ection": 1192,
      "uss": 1193,
      "Ġcap": 1194,
      "ious": 1195,
      "Ġmark": 1196,
      "Ġfocus": 1197,
      "itive": 1198,
      "Ġfri": 1199,
      "ribut": 1200,
      "The": 1201,
      "Ġfact": 1202,
      "Ġpower": 1203,
      "ties": 1204,
      "iew": 1205,
      "urn": 1206,
      "ature": 1207,
      "ick": 1208,
      "Ġlo": 1209,
      "Ġid": 1210,
      "eld": 1211,
      "ĠCon": 1212,
      "Ġfirst": 1213,
      "Ġsuccess": 1214,
      "Ġdue": 1215,
      "ife": 1216,
      "reat": 1217,
      "Ġwould": 1218,
      "Ġcor": 1219,
      "Ġtyp": 1220,
      "ĠHowever": 1221,
      "Ġinteg": 1222,
      "Ġmed": 1223,
      "Ġdata": 1224,
      "Ġatt": 1225,
      "Ġimpro": 1226,
      "Ġdown": 1227,
      "Ġjust": 1228,
      "Ġanal": 1229,
      "Ġorgan": 1230,
      "ital": 1231,
      "Ġdef": 1232,
      "Ġed": 1233,
      "Ġmin": 1234,
      "ember": 1235,
      "roduc": 1236,
      "ather": 1237,
      "ĠCom": 1238,
      "Ġent": 1239,
      "ram": 1240,
      "Ġamong": 1241,
      "ology": 1242,
      "Ġmaintain": 1243,
      "less": 1244,
      "Ġmake": 1245,
      ".\"": 1246,
      "Ġdeep": 1247,
      "Ġremain": 1248,
      "Ġlearn": 1249,
      "ield": 1250,
      "ied": 1251,
      "Ġprog": 1252,
      "te": 1253,
      "Ġoffer": 1254,
      "usiness": 1255,
      "str": 1256,
      "Ġconc": 1257,
      "Ġrelations": 1258,
      "Ġcall": 1259,
      "ining": 1260,
      "agement": 1261,
      "omes": 1262,
      "Ġunique": 1263,
      "clusion": 1264,
      "Ġcomplex": 1265,
      "ization": 1266,
      "line": 1267,
      "Ġapproach": 1268,
      "aph": 1269,
      "Ġele": 1270,
      "Ġnumber": 1271,
      "par": 1272,
      "ince": 1273,
      "entif": 1274,
      "}{": 1275,
      "Ġtowards": 1276,
      "Ġperform": 1277,
      "lying": 1278,
      "Ġbeh": 1279,
      "Ġessential": 1280,
      "aw": 1281,
      "ĠAn": 1282,
      "pportun": 1283,
      "lish": 1284,
      "ov": 1285,
      "Ġthen": 1286,
      "Ġhad": 1287,
      "Ġsom": 1288,
      "Ġmany": 1289,
      "Ġacross": 1290,
      "Ġ4": 1291,
      "Ġposs": 1292,
      "ples": 1293,
      "Ġ'": 1294,
      "Ġgener": 1295,
      "Ġstep": 1296,
      "itional": 1297,
      "ĠPro": 1298,
      "gg": 1299,
      "Ġproper": 1300,
      "Ġrespons": 1301,
      "utions": 1302,
      "Ġalong": 1303,
      "ustom": 1304,
      "ru": 1305,
      "Ġfost": 1306,
      "iss": 1307,
      "Ġspecific": 1308,
      "ĠWe": 1309,
      "Ġoften": 1310,
      "ources": 1311,
      "Ġear": 1312,
      "ething": 1313,
      "Ġonly": 1314,
      "ols": 1315,
      "Ġcle": 1316,
      "tice": 1317,
      "ĠTo": 1318,
      "Ġincluding": 1319,
      "ĠEn": 1320,
      "ired": 1321,
      "Ġthough": 1322,
      "Ġcruc": 1323,
      "Ġsomething": 1324,
      "Ġopportun": 1325,
      "Ġbased": 1326,
      "Ġav": 1327,
      "Ġenh": 1328,
      "Ġiniti": 1329,
      "abor": 1330,
      "ertain": 1331,
      "idel": 1332,
      "Ġskill": 1333,
      "ety": 1334,
      "Ġcrucial": 1335,
      "iron": 1336,
      "ases": 1337,
      "ength": 1338,
      "Ġwithout": 1339,
      "cc": 1340,
      "ories": 1341,
      "Ġdiscuss": 1342,
      "frac": 1343,
      "ier": 1344,
      "equ": 1345,
      "Ġrelationship": 1346,
      "Ġbusiness": 1347,
      "ects": 1348,
      "Ġanother": 1349,
      "ilities": 1350,
      "ecess": 1351,
      "au": 1352,
      "Ġwere": 1353,
      "cep": 1354,
      "ĠĠĠĠ": 1355,
      "Ġplan": 1356,
      "Ġdep": 1357,
      "ethod": 1358,
      "Ġben": 1359,
      "Ġexperi": 1360,
      ".,": 1361,
      "Ġexpress": 1362,
      "els": 1363,
      "Ġpart": 1364,
      "Ġbuild": 1365,
      "Ġgiv": 1366,
      "ually": 1367,
      "tional": 1368,
      "air": 1369,
      "Ġbre": 1370,
      "Ġbel": 1371,
      "Ġgl": 1372,
      "ĠSh": 1373,
      "Ġown": 1374,
      "Ġproble": 1375,
      "Ġdire": 1376,
      "Ġtog": 1377,
      "Ġtogether": 1378,
      "Ġway": 1379,
      "Ġsmall": 1380,
      "Ġ0": 1381,
      "Ġsever": 1382,
      "Ġvalue": 1383,
      "ilar": 1384,
      "Ġfound": 1385,
      "viron": 1386,
      "eting": 1387,
      "Ġlong": 1388,
      "Ġexample": 1389,
      "Ġgrou": 1390,
      "Ġend": 1391,
      "$$": 1392,
      "earch": 1393,
      "ental": 1394,
      "Ġchar": 1395,
      "ism": 1396,
      "ĠUn": 1397,
      "Ġ5": 1398,
      "con": 1399,
      "Ġintegr": 1400,
      "Ġagain": 1401,
      "ĠWith": 1402,
      "Ġafter": 1403,
      "ession": 1404,
      "uch": 1405,
      "Key": 1406,
      "Ġapplic": 1407,
      "Ġcult": 1408,
      "Ġcho": 1409,
      "Ġtoo": 1410,
      "Ġcontribut": 1411,
      "Ġsch": 1412,
      "Ġ**": 1413,
      "Ġrepresent": 1414,
      "Ġcustom": 1415,
      "âĢĶ": 1416,
      "ture": 1417,
      "Ġiss": 1418,
      "aving": 1419,
      "Ġfam": 1420,
      "Ġmust": 1421,
      "ination": 1422,
      "ision": 1423,
      "Ġemb": 1424,
      "Ġoper": 1425,
      "Ġmon": 1426,
      "ause": 1427,
      "ways": 1428,
      "to": 1429,
      "Ġinn": 1430,
      "Ġlearning": 1431,
      "Ġresul": 1432,
      "ĠThey": 1433,
      "Ġaccess": 1434,
      "Ġmean": 1435,
      "ffor": 1436,
      "red": 1437,
      "ĠCons": 1438,
      "Ġregard": 1439,
      "As": 1440,
      "Ġtrad": 1441,
      "Ġmem": 1442,
      "Ġpractic": 1443,
      "ink": 1444,
      "Ġresearch": 1445,
      "thers": 1446,
      "asing": 1447,
      "Ġide": 1448,
      "Ġhum": 1449,
      "Ġprev": 1450,
      "ploy": 1451,
      "Ġpur": 1452,
      "Ġpass": 1453,
      "ending": 1454,
      "Ġchallenges": 1455,
      "ined": 1456,
      "Ġwell": 1457,
      "iques": 1458,
      "ourn": 1459,
      "ibility": 1460,
      "Ġmath": 1461,
      "Ġcreate": 1462,
      "Ġeffective": 1463,
      "ape": 1464,
      "Ġcal": 1465,
      "Ġ|": 1466,
      "Ġmethod": 1467,
      "Ġenviron": 1468,
      "âĢĻ": 1469,
      "Ġrole": 1470,
      "ix": 1471,
      "Ġupon": 1472,
      "Ġexperience": 1473,
      "ax": 1474,
      "Wh": 1475,
      "ĠAl": 1476,
      "fully": 1477,
      "ew": 1478,
      "Ġday": 1479,
      "ourse": 1480,
      "Ġthroughout": 1481,
      "inal": 1482,
      "ople": 1483,
      "Ġgrowth": 1484,
      "aring": 1485,
      "Ġhand": 1486,
      "Ġcond": 1487,
      "Ġfurther": 1488,
      "cul": 1489,
      "Ġinformation": 1490,
      "Ġlife": 1491,
      "Ġopen": 1492,
      "ited": 1493,
      "ema": 1494,
      "Ġques": 1495,
      "und": 1496,
      "Ġhist": 1497,
      "Ġmus": 1498,
      "Ġprovide": 1499,
      "..": 1500,
      "wh": 1501,
      "oci": 1502,
      "Ġnecess": 1503,
      "Ġprot": 1504,
      "ablish": 1505,
      "labor": 1506,
      "Ġseem": 1507,
      "Ġnumbers": 1508,
      "erse": 1509,
      "To": 1510,
      "Ġbeen": 1511,
      "Ġexplore": 1512,
      "Ġcomb": 1513,
      "Now": 1514,
      "Ġ20": 1515,
      "Ġtra": 1516,
      "Ġoverall": 1517,
      "ips": 1518,
      "vices": 1519,
      "Ġstar": 1520,
      "cept": 1521,
      "Ġconst": 1522,
      "Ġtake": 1523,
      "Ġbenef": 1524,
      "Ġlevel": 1525,
      "Ġpersonal": 1526,
      "Ġseveral": 1527,
      "ris": 1528,
      "Ġmeas": 1529,
      "ĠIm": 1530,
      "Ġest": 1531,
      "Ġstand": 1532,
      "Ġothers": 1533,
      "Ġline": 1534,
      "Ġshow": 1535,
      "Ġpri": 1536,
      "ogn": 1537,
      "Ġdoes": 1538,
      "Ġensure": 1539,
      "Ġshould": 1540,
      "Ġvalues": 1541,
      "Ġliv": 1542,
      "Ġaw": 1543,
      "acy": 1544,
      "ĠAdd": 1545,
      "ables": 1546,
      "Ġcar": 1547,
      "Ġlim": 1548,
      "Ġdevelopment": 1549,
      "Ġbetter": 1550,
      "Ġmaking": 1551,
      "Ġless": 1552,
      "Ġbeing": 1553,
      "Ġchang": 1554,
      "ists": 1555,
      "Ġsaf": 1556,
      "Ġsupp": 1557,
      "Ġpat": 1558,
      "ants": 1559,
      "ically": 1560,
      "Ġstruc": 1561,
      "Ġaddress": 1562,
      "ject": 1563,
      "eed": 1564,
      "Ġeduc": 1565,
      "Ġmost": 1566,
      "aterial": 1567,
      "ledge": 1568,
      "ron": 1569,
      "Ġparticular": 1570,
      "Ġactiv": 1571,
      "âĪ": 1572,
      "Ġfriends": 1573,
      "Ġvalu": 1574,
      "Ġtechniques": 1575,
      "ĠAm": 1576,
      "Ġpop": 1577,
      "Ġindividuals": 1578,
      "ording": 1579,
      "Ġtop": 1580,
      "Ġpeople": 1581,
      "aining": 1582,
      "uth": 1583,
      "Ġrequir": 1584,
      "Ġstrategies": 1585,
      "ser": 1586,
      "Ġdeterm": 1587,
      "Ġdiscover": 1588,
      "self": 1589,
      "Ġcontinu": 1590,
      "Ġemp": 1591,
      "Ġspecial": 1592,
      "Ġjourn": 1593,
      "Ġpromot": 1594,
      "ior": 1595,
      "ock": 1596,
      "Ġdi": 1597,
      "itle": 1598,
      "anced": 1599,
      "Ġinsights": 1600,
      "day": 1601,
      "plic": 1602,
      "Ġgre": 1603,
      "up": 1604,
      "lu": 1605,
      "Ġget": 1606,
      "Ġread": 1607,
      "ears": 1608,
      "Ġcalled": 1609,
      "Ġz": 1610,
      "Ġteam": 1611,
      "agine": 1612,
      "ĠBut": 1613,
      "Ġensuring": 1614,
      "Ġskills": 1615,
      "irc": 1616,
      "Ġtri": 1617,
      "ensive": 1618,
      "Ġcent": 1619,
      "^{": 1620,
      "tle": 1621,
      "ĠSo": 1622,
      "ave": 1623,
      "view": 1624,
      "====": 1625,
      "Ġfactors": 1626,
      "Ġrele": 1627,
      "Ġfeel": 1628,
      "ored": 1629,
      "Ġopportunities": 1630,
      "Ġsocial": 1631,
      "uture": 1632,
      "atis": 1633,
      "Ġpositive": 1634,
      "Ġkey": 1635,
      "Ġreduc": 1636,
      "oid": 1637,
      "ense": 1638,
      "roduction": 1639,
      "xim": 1640,
      "Ġwr": 1641,
      "Ġsupport": 1642,
      "ĠWhile": 1643,
      "uidel": 1644,
      "ian": 1645,
      "Ġes": 1646,
      "atform": 1647,
      "Ġinclude": 1648,
      "times": 1649,
      "ests": 1650,
      "lement": 1651,
      "Ġprofession": 1652,
      "Ġsince": 1653,
      "Ġris": 1654,
      "Ġcontro": 1655,
      "Ġlocal": 1656,
      "$,": 1657,
      "Ġemploy": 1658,
      "Ġassoci": 1659,
      "atures": 1660,
      "Ġsit": 1661,
      "ĠAnd": 1662,
      "Ġprin": 1663,
      "Ġinnov": 1664,
      "Ġeffor": 1665,
      ":**": 1666,
      "Ġ$\\": 1667,
      "Ġwhether": 1668,
      "tives": 1669,
      "Ġright": 1670,
      "ĠLet": 1671,
      "Ġcertain": 1672,
      "Ġmaterial": 1673,
      "Ġpresent": 1674,
      "Ġimm": 1675,
      "Ġregarding": 1676,
      "acter": 1677,
      "oreover": 1678,
      "Ġpractices": 1679,
      "nderstand": 1680,
      "Ġimportant": 1681,
      "onstr": 1682,
      "Ġvaluable": 1683,
      "sel": 1684,
      "aling": 1685,
      "thing": 1686,
      "Ġknowledge": 1687,
      "Ġcommunity": 1688,
      "pite": 1689,
      "ergy": 1690,
      "Ġcri": 1691,
      "Ġcompon": 1692,
      "Ġagainst": 1693,
      "Ġorig": 1694,
      "Ġmet": 1695,
      "Ġtal": 1696,
      "Ġcreating": 1697,
      "Ġidentif": 1698,
      "Ġsti": 1699,
      "ublic": 1700,
      "Ġresources": 1701,
      "app": 1702,
      "Ġfollowing": 1703,
      "Ġwant": 1704,
      "Ġpo": 1705,
      "raph": 1706,
      "Ġconnec": 1707,
      "Ġanaly": 1708,
      "the": 1709,
      "Ġconsist": 1710,
      "pects": 1711,
      "Ġchange": 1712,
      "Ġsystems": 1713,
      "Ġter": 1714,
      "$.": 1715,
      "Ġful": 1716,
      "II": 1717,
      "Ġexc": 1718,
      "Ġalways": 1719,
      "ĠOne": 1720,
      "iec": 1721,
      "Ġdirect": 1722,
      "atch": 1723,
      "Ġestablish": 1724,
      "Ġaff": 1725,
      "Ġcollabor": 1726,
      "eness": 1727,
      "arch": 1728,
      "ĠWhen": 1729,
      "Ġpoint": 1730,
      "Ġturn": 1731,
      "Ġkeep": 1732,
      "Ġleg": 1733,
      "###": 1734,
      "Ġbecome": 1735,
      "Ġmathema": 1736,
      "Ġphys": 1737,
      "itionally": 1738,
      "Ġallows": 1739,
      "Title": 1740,
      "Ġdig": 1741,
      "Ġcalcul": 1742,
      "ĠHe": 1743,
      "yond": 1744,
      "Ġbeyond": 1745,
      "Ġsum": 1746,
      "Ġinstead": 1747,
      "ner": 1748,
      "Ġtransform": 1749,
      "Ġimpact": 1750,
      "Ġdemonstr": 1751,
      "Ġissues": 1752,
      "Ġ6": 1753,
      "avig": 1754,
      "Ġthings": 1755,
      "Ġprim": 1756,
      "reci": 1757,
      "Ġoptim": 1758,
      "Ġused": 1759,
      "Ġprogram": 1760,
      "Ġenvironment": 1761,
      "ĠEm": 1762,
      "Ġthree": 1763,
      "'re": 1764,
      "ancing": 1765,
      "omm": 1766,
      "Ġimprove": 1767,
      "Ġplatform": 1768,
      "ash": 1769,
      "ins": 1770,
      "Ġeffici": 1771,
      "Ġexperiences": 1772,
      "Ġfuture": 1773,
      "Ġjourney": 1774,
      "ract": 1775,
      "Ġsimilar": 1776,
      "Ġuse": 1777,
      "read": 1778,
      "ee": 1779,
      "Ġbest": 1780,
      "Ġmade": 1781,
      "Ġcommunication": 1782,
      "alu": 1783,
      "Ġmultiple": 1784,
      "aces": 1785,
      "Ġhere": 1786,
      "Ġeas": 1787,
      "uce": 1788,
      "ove": 1789,
      "Ġpattern": 1790,
      "Ġcollec": 1791,
      "Ġelements": 1792,
      "Ġclass": 1793,
      "Ġonline": 1794,
      "Ġbecause": 1795,
      "Ġel": 1796,
      "Ġsteps": 1797,
      "ute": 1798,
      "Ġminim": 1799,
      "ze": 1800,
      "yn": 1801,
      "Ġstudents": 1802,
      "ush": 1803,
      "reh": 1804,
      "Ġcompan": 1805,
      "Ġcost": 1806,
      "ĠYou": 1807,
      "Ġwhy": 1808,
      "Ġhim": 1809,
      "pos": 1810,
      "orm": 1811,
      "Ġnow": 1812,
      "troduction": 1813,
      "Ġwater": 1814,
      "Ġarti": 1815,
      "Ġtools": 1816,
      "Ġappreci": 1817,
      "Ġproviding": 1818,
      "Ġ*": 1819,
      "Ġbal": 1820,
      "Ġcirc": 1821,
      "ĠTr": 1822,
      "Ġindust": 1823,
      "Ġgiven": 1824,
      "Ġinflu": 1825,
      "orpor": 1826,
      "Ġpolic": 1827,
      "ili": 1828,
      "ĠDe": 1829,
      "Ġcommon": 1830,
      "by": 1831,
      "Ġstrong": 1832,
      "Ġnon": 1833,
      "ards": 1834,
      "Ġlook": 1835,
      "Ġmove": 1836,
      "Ġrequire": 1837,
      "Ġlit": 1838,
      "be": 1839,
      "{\\": 1840,
      "Ġhapp": 1841,
      "Ġinstance": 1842,
      "Ġfield": 1843,
      "Ġself": 1844,
      "Ġaim": 1845,
      "selves": 1846,
      "Ġproblem": 1847,
      "Ġrelationships": 1848,
      "idence": 1849,
      "ltim": 1850,
      "ĠThrough": 1851,
      "ological": 1852,
      "Ġpati": 1853,
      "Ġred": 1854,
      ",\"": 1855,
      "work": 1856,
      "Ġenergy": 1857,
      "Ġsetting": 1858,
      "Ġneg": 1859,
      "Ġexploring": 1860,
      "Ġassociated": 1861,
      "hie": 1862,
      "ĠApp": 1863,
      "ograph": 1864,
      "Ġcount": 1865,
      "Ġhuman": 1866,
      "Ġperformance": 1867,
      "Ġact": 1868,
      "Ġconcern": 1869,
      "Ġyourself": 1870,
      "Ġachie": 1871,
      "Ġsame": 1872,
      "Ġbehav": 1873,
      "Ġmind": 1874,
      "Ġinvolves": 1875,
      "amp": 1876,
      "ails": 1877,
      "her": 1878,
      "Ġoffers": 1879,
      "Ġleading": 1880,
      "ars": 1881,
      "Ġgain": 1882,
      "Ġpoints": 1883,
      "Ġintern": 1884,
      "Ġreach": 1885,
      "Ġaspects": 1886,
      "ng": 1887,
      "ked": 1888,
      "ides": 1889,
      "Ġneeds": 1890,
      "ĠRe": 1891,
      "One": 1892,
      "kes": 1893,
      "Ġconditions": 1894,
      "der": 1895,
      "Ġemo": 1896,
      "Ġyet": 1897,
      "ĠAdditionally": 1898,
      "Ġpiec": 1899,
      "istic": 1900,
      "Ġbro": 1901,
      "ounter": 1902,
      "Ġcase": 1903,
      "Ġdid": 1904,
      "ah": 1905,
      "Ġspace": 1906,
      "Ġsym": 1907,
      "erc": 1908,
      "Ġstill": 1909,
      "fort": 1910,
      "Ġmuch": 1911,
      "jects": 1912,
      "Ġret": 1913,
      "ration": 1914,
      "Ġconsum": 1915,
      "Ġclear": 1916,
      "ots": 1917,
      "ĠAr": 1918,
      "Ġcomes": 1919,
      "Ġremember": 1920,
      "Ġmen": 1921,
      "Ġauth": 1922,
      "Ġnecessary": 1923,
      "Ġhome": 1924,
      "ict": 1925,
      "Con": 1926,
      "vice": 1927,
      "Ġdiverse": 1928,
      "ters": 1929,
      "Ġstrength": 1930,
      "Ġconclusion": 1931,
      "Ġshared": 1932,
      "ane": 1933,
      "Ġdra": 1934,
      "Ġweb": 1935,
      "inary": 1936,
      "Ġimportance": 1937,
      "Ġsl": 1938,
      "Ġcharacter": 1939,
      "ream": 1940,
      "Ġcomple": 1941,
      "Ġresults": 1942,
      "atives": 1943,
      "Ġmaintaining": 1944,
      "Ġmeaning": 1945,
      "Ġsignificantly": 1946,
      "Ġpossible": 1947,
      "ren": 1948,
      "Ġincorpor": 1949,
      "Ġmethods": 1950,
      "Ġrequires": 1951,
      "Ġencour": 1952,
      "ĠBe": 1953,
      "Ġmag": 1954,
      "Ġnumer": 1955,
      "Ġrather": 1956,
      "Ġthought": 1957,
      "Ġconvers": 1958,
      "Ġrest": 1959,
      "Ġmom": 1960,
      "Ġrecogn": 1961,
      "Ġocc": 1962,
      "pir": 1963,
      "pective": 1964,
      "nderstanding": 1965,
      "ced": 1966,
      "Ġ`": 1967,
      "ĠPl": 1968,
      "Ġknown": 1969,
      "ool": 1970,
      "Ġdon": 1971,
      "Ġlist": 1972,
      "Ġshare": 1973,
      "Ġenti": 1974,
      "ries": 1975,
      "tention": 1976,
      "Ġgroup": 1977,
      "Ġorganiz": 1978,
      "Ġpublic": 1979,
      "ators": 1980,
      "angu": 1981,
      "pected": 1982,
      "ysis": 1983,
      "ening": 1984,
      "rop": 1985,
      "}\\": 1986,
      "Ġaud": 1987,
      "Ġtechnology": 1988,
      "more": 1989,
      "Ġdri": 1990,
      "ooking": 1991,
      "ltimately": 1992,
      "ously": 1993,
      "Ġeveryone": 1994,
      "Ġfostering": 1995,
      "Ġsoci": 1996,
      "aps": 1997,
      "Ġunit": 1998,
      "Ġcr": 1999,
      "ĠMoreover": 2000,
      "Ġet": 2001,
      "ided": 2002,
      "ret": 2003,
      "zing": 2004,
      "esting": 2005,
      "Ġworking": 2006,
      "Ġmeans": 2007,
      "Ġfund": 2008,
      "Ġconcept": 2009,
      "ilit": 2010,
      "Ġproduct": 2011,
      "Ġsqu": 2012,
      "Ġavail": 2013,
      "Ġtimes": 2014,
      "math": 2015,
      "ules": 2016,
      "com": 2017,
      "ption": 2018,
      "atic": 2019,
      "Ġfel": 2020,
      "ĠIf": 2021,
      "action": 2022,
      "Ġshap": 2023,
      "vity": 2024,
      "Ġden": 2025,
      "Ġprefer": 2026,
      "Ġmanagement": 2027,
      "den": 2028,
      "This": 2029,
      "Ġnat": 2030,
      "ody": 2031,
      "Ġnavig": 2032,
      "ĠOn": 2033,
      "ership": 2034,
      "Ġgover": 2035,
      "Ġcommit": 2036,
      "Ġcomponents": 2037,
      "ered": 2038,
      "Ġill": 2039,
      "Ġsitu": 2040,
      "Ġparticip": 2041,
      "Ġfr": 2042,
      "Ġscen": 2043,
      "ds": 2044,
      "Ġoutc": 2045,
      "vant": 2046,
      "Ġusers": 2047,
      "Ġtraditional": 2048,
      "Ġhighl": 2049,
      "Ġincreasing": 2050,
      "Ġaccur": 2051,
      "Ġobser": 2052,
      "asc": 2053,
      "Ġareas": 2054,
      "Ġbenefits": 2055,
      "ension": 2056,
      "Ġelect": 2057,
      "Ġsolutions": 2058,
      "Ġcompreh": 2059,
      "ipp": 2060,
      "Ġ201": 2061,
      "Ġresult": 2062,
      "Ġinvest": 2063,
      "Ġbeg": 2064,
      "joy": 2065,
      "br": 2066,
      "ancial": 2067,
      "Ġbecomes": 2068,
      "Ġadap": 2069,
      "ciples": 2070,
      "ĠAt": 2071,
      "care": 2072,
      "Ġtem": 2073,
      "``": 2074,
      "Ġnet": 2075,
      "iod": 2076,
      "Ġhold": 2077,
      "Ġlevels": 2078,
      "avor": 2079,
      "osing": 2080,
      "sing": 2081,
      "Ġcontrol": 2082,
      "Ġfunctions": 2083,
      "eti": 2084,
      "Ġprovided": 2085,
      "Ġtoday": 2086,
      "ule": 2087,
      "Ġcourse": 2088,
      "Ġsurround": 2089,
      "ynam": 2090,
      "ected": 2091,
      "Ġimplement": 2092,
      "isting": 2093,
      "put": 2094,
      "Ġservices": 2095,
      "Ġnear": 2096,
      "elling": 2097,
      "ator": 2098,
      "ĠThere": 2099,
      "Ġcurr": 2100,
      "Ġey": 2101,
      "oot": 2102,
      "Ġhelps": 2103,
      "Ġchanges": 2104,
      "aries": 2105,
      "Ġquality": 2106,
      "Ġpatterns": 2107,
      "ify": 2108,
      "Ġbas": 2109,
      "ulation": 2110,
      "Ġtrust": 2111,
      "urity": 2112,
      "Ġremains": 2113,
      "Ġpress": 2114,
      "Ġfil": 2115,
      "Ġuntil": 2116,
      "Ġlangu": 2117,
      "Ġemerg": 2118,
      "port": 2119,
      "ĠTips": 2120,
      "Ġequation": 2121,
      "Ġmar": 2122,
      "Ġinterest": 2123,
      "ĠYour": 2124,
      "Ġutil": 2125,
      "Ġyears": 2126,
      "eric": 2127,
      "Ġver": 2128,
      "tal": 2129,
      "conom": 2130,
      "urthermore": 2131,
      "'ll": 2132,
      "ĠRem": 2133,
      "Ġselec": 2134,
      "Ġfre": 2135,
      "oss": 2136,
      "Ġcaus": 2137,
      "Ġprogress": 2138,
      "Ġoptions": 2139,
      "ĠGuidel": 2140,
      "Ġ7": 2141,
      "Ġpost": 2142,
      "Ġefforts": 2143,
      "Ġhaving": 2144,
      "atisf": 2145,
      "fic": 2146,
      "ann": 2147,
      "Ġconnections": 2148,
      "Ġlight": 2149,
      "Ġer": 2150,
      "Ġenjoy": 2151,
      "Ġded": 2152,
      "Ġoriginal": 2153,
      "xt": 2154,
      "ustain": 2155,
      "Ġprovides": 2156,
      "isions": 2157,
      "Ġyoung": 2158,
      "Ġaccording": 2159,
      "ĠQ": 2160,
      "Ġsugg": 2161,
      "Ġterms": 2162,
      "aster": 2163,
      "Ġprinciples": 2164,
      "olution": 2165,
      "Ġregular": 2166,
      "Ġones": 2167,
      "Ġcontribute": 2168,
      "Ġtravel": 2169,
      "Ġsing": 2170,
      "Ġnature": 2171,
      "ral": 2172,
      "Ġallowing": 2173,
      "ason": 2174,
      "Ġdigital": 2175,
      "Ġeffectively": 2176,
      "Ġtarg": 2177,
      "inating": 2178,
      "ients": 2179,
      "ope": 2180,
      "Ġquestions": 2181,
      "Ġmarket": 2182,
      "cepts": 2183,
      "}}": 2184,
      "ĠThat": 2185,
      "Ġfeatures": 2186,
      "ale": 2187,
      "Ġclos": 2188,
      "Ġlaw": 2189,
      "Ġpoli": 2190,
      "ero": 2191,
      "get": 2192,
      "Ġmembers": 2193,
      "Ġbehind": 2194,
      "ours": 2195,
      "Ġuser": 2196,
      "Ġsuccessful": 2197,
      "Ġaltern": 2198,
      "io": 2199,
      "Ġdecision": 2200,
      "Ġvers": 2201,
      "fact": 2202,
      "Ġseeking": 2203,
      "ĠDes": 2204,
      "Ġsw": 2205,
      "Ġang": 2206,
      "Ġve": 2207,
      "An": 2208,
      "Ġrepresents": 2209,
      "Ġquick": 2210,
      "pri": 2211,
      "Ġbuilding": 2212,
      "ems": 2213,
      "Ġinves": 2214,
      "Ġattention": 2215,
      "Ġevents": 2216,
      "Ġways": 2217,
      "Ġactivities": 2218,
      "Ġever": 2219,
      "_{": 2220,
      "aged": 2221,
      "ersity": 2222,
      "Ġconcerns": 2223,
      "Ġbelie": 2224,
      "Ġsometimes": 2225,
      "Ġmaterials": 2226,
      "anti": 2227,
      "ware": 2228,
      "Ġdesc": 2229,
      "Ġlay": 2230,
      "Ġtreat": 2231,
      "eck": 2232,
      "Ġsatisf": 2233,
      "akes": 2234,
      "Ġchild": 2235,
      "iver": 2236,
      "Ġcra": 2237,
      "Ġinitial": 2238,
      "ĠAfter": 2239,
      "On": 2240,
      "Ġpractice": 2241,
      "int": 2242,
      "Ġdeeper": 2243,
      "Ġview": 2244,
      "actions": 2245,
      "Ġeducation": 2246,
      "ising": 2247,
      "Ġstat": 2248,
      "ming": 2249,
      "Ġnatural": 2250,
      "ulations": 2251,
      "Ġaut": 2252,
      "Ġcome": 2253,
      "ĠMan": 2254,
      "Ġmodern": 2255,
      "ĠAc": 2256,
      "Ġbound": 2257,
      "Ġclose": 2258,
      "Ġnext": 2259,
      "fect": 2260,
      "Ġfinancial": 2261,
      "Ġprocesses": 2262,
      "Ġtypes": 2263,
      "Ġarea": 2264,
      "Ġcommunities": 2265,
      "Ġvia": 2266,
      "Ġevalu": 2267,
      "right": 2268,
      "Ġperson": 2269,
      "Ġpopular": 2270,
      "ient": 2271,
      "Ġgood": 2272,
      "ither": 2273,
      "ames": 2274,
      "just": 2275,
      "Ġfriend": 2276,
      "ches": 2277,
      "Ġavailable": 2278,
      "orical": 2279,
      "Ġtas": 2280,
      "Ġapplications": 2281,
      "Ġmarketing": 2282,
      "Ġbusinesses": 2283,
      "echan": 2284,
      "Ġlands": 2285,
      "orts": 2286,
      "Ġsustain": 2287,
      "Ġvol": 2288,
      "Ġglob": 2289,
      "arge": 2290,
      "ource": 2291,
      "aying": 2292,
      "Ġmakes": 2293,
      "Ġgame": 2294,
      "ĠFurthermore": 2295,
      "Ġsecond": 2296,
      "Ġfocusing": 2297,
      "Ġharm": 2298,
      "Ġinvolving": 2299,
      "First": 2300,
      "ended": 2301,
      "Ġpath": 2302,
      "Ġreflec": 2303,
      "olving": 2304,
      "Ġcultural": 2305,
      "ĠInd": 2306,
      "Ġbegin": 2307,
      "Ġvisual": 2308,
      "Ġconstruc": 2309,
      "Ġtail": 2310,
      "Ġdistin": 2311,
      "ains": 2312,
      "Ġ19": 2313,
      "Ġsharing": 2314,
      "?\"": 2315,
      "sc": 2316,
      "Ġdynam": 2317,
      "ĠComm": 2318,
      "Ġsoft": 2319,
      "Ġplatforms": 2320,
      "Ġeconom": 2321,
      "Ġder": 2322,
      "Ġsty": 2323,
      "go": 2324,
      "encies": 2325,
      "Ġequal": 2326,
      "ugg": 2327,
      "Ġorganizations": 2328,
      "Ġfill": 2329,
      "Ġside": 2330,
      "Ġphysical": 2331,
      "Ġconcepts": 2332,
      "ĠCont": 2333,
      "ements": 2334,
      "ones": 2335,
      "val": 2336,
      "Ġsound": 2337,
      "Ġmedia": 2338,
      "Ġenhance": 2339,
      "ym": 2340,
      "Ġsafety": 2341,
      "Ġleft": 2342,
      "tig": 2343,
      "Ġintric": 2344,
      "ĠUnderstanding": 2345,
      "ĠInst": 2346,
      "Ġstudy": 2347,
      "Ġ/": 2348,
      "Ġsens": 2349,
      "Ġproducts": 2350,
      "ĠCl": 2351,
      "**:": 2352,
      "Ġparticularly": 2353,
      "Ġguide": 2354,
      "Ġappropri": 2355,
      "phas": 2356,
      "Ġbehavior": 2357,
      "Ex": 2358,
      "oh": 2359,
      "Ġart": 2360,
      "Ġrece": 2361,
      "Ġfood": 2362,
      "ufact": 2363,
      "oth": 2364,
      "Ġfamily": 2365,
      "ats": 2366,
      "Ġrespect": 2367,
      "Ġda": 2368,
      "of": 2369,
      "Ġonce": 2370,
      "ean": 2371,
      "isc": 2372,
      "Ġlog": 2373,
      "outs": 2374,
      "Ġdecided": 2375,
      "ĠAmeric": 2376,
      "Ġworks": 2377,
      "Ġcritical": 2378,
      "Ġoutcomes": 2379,
      "ĠGuidelines": 2380,
      "Ġteach": 2381,
      "Ġdirectly": 2382,
      "hold": 2383,
      "Ġgroups": 2384,
      "Ġindustry": 2385,
      "ened": 2386,
      "---": 2387,
      "Ġthemselves": 2388,
      "Ġmusic": 2389,
      "Conclusion": 2390,
      "Ġavoid": 2391,
      "pr": 2392,
      "ĠComp": 2393,
      "Ġarr": 2394,
      "sts": 2395,
      "ises": 2396,
      "Ġtrue": 2397,
      "Ġentire": 2398,
      "Ġdraw": 2399,
      "Ġperiod": 2400,
      "Ġlearned": 2401,
      "iliar": 2402,
      "Ġsimple": 2403,
      "Ġbroad": 2404,
      "omen": 2405,
      "Ġhead": 2406,
      "Ġgovern": 2407,
      "ĠSim": 2408,
      "ĠSome": 2409,
      "ote": 2410,
      "Ġlandsc": 2411,
      "Ġtaking": 2412,
      "Ġbi": 2413,
      "Ġprior": 2414,
      "Ġfinding": 2415,
      "(\\": 2416,
      "time": 2417,
      "Ġnumerous": 2418,
      "Ġmess": 2419,
      "Ġevent": 2420,
      "Ġcontent": 2421,
      "Ġthink": 2422,
      "Ġenough": 2423,
      "ffici": 2424,
      "Ġsal": 2425,
      "ecting": 2426,
      "Ġdoc": 2427,
      "Ġcover": 2428,
      "oint": 2429,
      "know": 2430,
      "rix": 2431,
      "Ġinvolved": 2432,
      "Ġaway": 2433,
      "Ġ8": 2434,
      "ery": 2435,
      "Ġperfect": 2436,
      "Ġbalance": 2437,
      "Ġhigher": 2438,
      "Ġexact": 2439,
      "Ġensures": 2440,
      "ply": 2441,
      "acks": 2442,
      "abilities": 2443,
      "ĠShe": 2444,
      "Ġeth": 2445,
      "Ġalign": 2446,
      "Ġlanguage": 2447,
      "Ġengagement": 2448,
      "Ġserve": 2449,
      "Ġneeded": 2450,
      "ector": 2451,
      "Ġplace": 2452,
      "eep": 2453,
      "plications": 2454,
      "--------------------------------": 2455,
      "Ġpred": 2456,
      "ially": 2457,
      "racing": 2458,
      "ĠX": 2459,
      "Ġdelve": 2460,
      "Ġhistory": 2461,
      "ived": 2462,
      "Ġsurrounding": 2463,
      "Ġstruct": 2464,
      "Ġcompeti": 2465,
      "Ġformul": 2466,
      "Ġpriv": 2467,
      "Ġpromoting": 2468,
      "face": 2469,
      "ribution": 2470,
      "Ġyield": 2471,
      "Ġadditional": 2472,
      "Ġquestion": 2473,
      "Ġstri": 2474,
      "ĠReg": 2475,
      "Ġrelevant": 2476,
      "ologies": 2477,
      "Ġterm": 2478,
      "Ġposition": 2479,
      "inally": 2480,
      "When": 2481,
      "term": 2482,
      "ode": 2483,
      "Ġfasc": 2484,
      "Ġmechan": 2485,
      "Ġproperties": 2486,
      "Ġappear": 2487,
      "Ġsequ": 2488,
      "ĠCol": 2489,
      "ĠRemember": 2490,
      "Ġrelated": 2491,
      "tically": 2492,
      "Ġisn": 2493,
      "sw": 2494,
      "Introduction": 2495,
      "Ġcompared": 2496,
      "Ġcul": 2497,
      "Ġaccount": 2498,
      "ude": 2499,
      "Ġpain": 2500,
      "Ġanalysis": 2501,
      "edi": 2502,
      "ident": 2503,
      "ma": 2504,
      "augh": 2505,
      "Ġra": 2506,
      "ĠRec": 2507,
      "Ġidenti": 2508,
      "How": 2509,
      "Ġprevent": 2510,
      "istance": 2511,
      "Ġdeb": 2512,
      "Ġsingle": 2513,
      "ĠConsider": 2514,
      "âĢĿ": 2515,
      "Ġpreser": 2516,
      "):": 2517,
      "Ġdesigned": 2518,
      "Ġmaxim": 2519,
      "Ġsure": 2520,
      "Ġexplor": 2521,
      "ibr": 2522,
      "omet": 2523,
      "Ġlarge": 2524,
      "ank": 2525,
      "pro": 2526,
      "Ġspecifically": 2527,
      "Ġcollaboration": 2528,
      "ging": 2529,
      "}$": 2530,
      "Ġcurrent": 2531,
      "Ġproblems": 2532,
      "rig": 2533,
      "Ġindic": 2534,
      "Im": 2535,
      "Ġlove": 2536,
      "Ġexpression": 2537,
      "urr": 2538,
      "Ġgreater": 2539,
      "Ġadvent": 2540,
      "ample": 2541,
      "Ġrun": 2542,
      "Ġadapt": 2543,
      "Ġpast": 2544,
      "Ġprec": 2545,
      "ĠOver": 2546,
      "Ġfacilit": 2547,
      "Ġexpect": 2548,
      "Ġcy": 2549,
      "ox": 2550,
      "Ġge": 2551,
      "Ġhard": 2552,
      "inking": 2553,
      "So": 2554,
      "Ġdespite": 2555,
      "ground": 2556,
      "entially": 2557,
      "Ġgoals": 2558,
      "ction": 2559,
      "Ġfar": 2560,
      "Ġund": 2561,
      "Ġnar": 2562,
      "asting": 2563,
      "ission": 2564,
      "Ġwa": 2565,
      "atory": 2566,
      "Ġemphas": 2567,
      "Ġincreased": 2568,
      "Ġincorporating": 2569,
      "Ġultimately": 2570,
      "Ġclean": 2571,
      "ĠâĢľ": 2572,
      "back": 2573,
      "Ġbody": 2574,
      "Ġdecisions": 2575,
      "Ġfew": 2576,
      "By": 2577,
      "pond": 2578,
      "Ġrates": 2579,
      "orting": 2580,
      "Ġforms": 2581,
      "Ġmeasure": 2582,
      "oday": 2583,
      "oph": 2584,
      "But": 2585,
      "ges": 2586,
      "Ġmanufact": 2587,
      "izes": 2588,
      "Ġstory": 2589,
      "Ġnegative": 2590,
      "Ġ{": 2591,
      "ĠStep": 2592,
      "ument": 2593,
      "Ġpowerful": 2594,
      "Ġcorre": 2595,
      "ouse": 2596,
      "urs": 2597,
      "expected": 2598,
      "ift": 2599,
      "Ġabove": 2600,
      "Ġearly": 2601,
      "porary": 2602,
      "Ġfull": 2603,
      "though": 2604,
      "enge": 2605,
      "Ġaction": 2606,
      "Ġaspect": 2607,
      "ĠSp": 2608,
      "Ġadm": 2609,
      "Ġlimit": 2610,
      "))": 2611,
      "lier": 2612,
      "Ġrad": 2613,
      "ĠAcc": 2614,
      "Ġinformed": 2615,
      "oms": 2616,
      "Ġrequired": 2617,
      "alls": 2618,
      "Ġstarted": 2619,
      "Ġreve": 2620,
      "ĠNow": 2621,
      "Ġgraph": 2622,
      "idst": 2623,
      "ele": 2624,
      "Ġmention": 2625,
      "ĠTim": 2626,
      "Ġheart": 2627,
      "Ġengaging": 2628,
      "amed": 2629,
      "Ġground": 2630,
      "Ġspe": 2631,
      "rep": 2632,
      "ites": 2633,
      "Ġenables": 2634,
      "Ġstories": 2635,
      "Ġapproaches": 2636,
      "Ġbig": 2637,
      "Ġfrequ": 2638,
      "Ġfree": 2639,
      "Ġsomeone": 2640,
      "Ġ10": 2641,
      "orn": 2642,
      "rt": 2643,
      "ium": 2644,
      "ios": 2645,
      "Ġitself": 2646,
      "not": 2647,
      "Ġunc": 2648,
      "Ġmeasures": 2649,
      "Ġability": 2650,
      "ĠHere": 2651,
      "Ġtre": 2652,
      "Ġprofessional": 2653,
      "Ġlength": 2654,
      "Ġansw": 2655,
      "AA": 2656,
      "...": 2657,
      "========": 2658,
      "Ġprevious": 2659,
      "my": 2660,
      "Ġaddressing": 2661,
      "ny": 2662,
      "Ġfig": 2663,
      "Ġ9": 2664,
      "Ġcomfort": 2665,
      "Ġsci": 2666,
      "ump": 2667,
      "Ġair": 2668,
      "Ġtype": 2669,
      "Ġadjust": 2670,
      "Ġactive": 2671,
      "cos": 2672,
      "Ġmental": 2673,
      "Ġcontext": 2674,
      "Ġglobal": 2675,
      "omp": 2676,
      "mathb": 2677,
      "Ġorder": 2678,
      "Ġbox": 2679,
      "ury": 2680,
      "Ġsets": 2681,
      "ustr": 2682,
      "works": 2683,
      "ik": 2684,
      "Ġeither": 2685,
      "Ġconstant": 2686,
      "Ġstart": 2687,
      "text": 2688,
      "arah": 2689,
      "Ġappropriate": 2690,
      "ĠRes": 2691,
      "ĠSc": 2692,
      "Ġlies": 2693,
      "Ġboo": 2694,
      "respond": 2695,
      "Ġcolor": 2696,
      "Ġexist": 2697,
      "Ġstructure": 2698,
      "Ġzero": 2699,
      "Ġi": 2700,
      "Ġinside": 2701,
      "eration": 2702,
      "Ġtext": 2703,
      "Ġculture": 2704,
      "Ġrob": 2705,
      "Ġcomput": 2706,
      "Ġtotal": 2707,
      "Ġchallenging": 2708,
      "Ġhealthcare": 2709,
      "Ġrich": 2710,
      "Ġappe": 2711,
      "enced": 2712,
      "Ġconven": 2713,
      "Ġassess": 2714,
      "Ġrecent": 2715,
      "Ġdom": 2716,
      "Ġonto": 2717,
      "Ġcorrespond": 2718,
      "Ġwebs": 2719,
      "Ġunexpected": 2720,
      "ĠĠĠ": 2721,
      "Ġideas": 2722,
      "Ġsun": 2723,
      "ĠDevelop": 2724,
      "Ġtrends": 2725,
      "ĠToday": 2726,
      "ells": 2727,
      "epar": 2728,
      "ified": 2729,
      "ume": 2730,
      "auti": 2731,
      "Ġhistorical": 2732,
      "Ġspir": 2733,
      "Ġrisk": 2734,
      "Ġbreak": 2735,
      "epend": 2736,
      "Once": 2737,
      "ees": 2738,
      "Ġshort": 2739,
      "aim": 2740,
      "ĠStud": 2741,
      "Ġexerc": 2742,
      "qrt": 2743,
      "side": 2744,
      "Ġlarg": 2745,
      "Ġearlier": 2746,
      "ĠId": 2747,
      "Ġlines": 2748,
      "play": 2749,
      "Ġchallenge": 2750,
      "Ġdive": 2751,
      "hood": 2752,
      "asts": 2753,
      "Ġplays": 2754,
      "Ġsolution": 2755,
      "Ġold": 2756,
      "Ġsumm": 2757,
      "Ġcred": 2758,
      "Ġcontinue": 2759,
      "Ġapplication": 2760,
      "Ġvital": 2761,
      "ighting": 2762,
      "Ġplanning": 2763,
      "Ġtailored": 2764,
      "Ġexce": 2765,
      "Ġface": 2766,
      "Ġfeed": 2767,
      "me": 2768,
      "Let": 2769,
      "Ġlives": 2770,
      "Ġarg": 2771,
      "Ġdam": 2772,
      "pecially": 2773,
      "ilience": 2774,
      "Ġscenari": 2775,
      "Ġengage": 2776,
      "rad": 2777,
      "Ġinterp": 2778,
      "Ġidentify": 2779,
      "ĠFrom": 2780,
      "Ġ<": 2781,
      "Ġremind": 2782,
      "Ġrepl": 2783,
      "Ġsecurity": 2784,
      "Ġadvant": 2785,
      "Ġmeet": 2786,
      "Ġcomplete": 2787,
      "Ġwond": 2788,
      "ĠSu": 2789,
      "Ġprob": 2790,
      "Ġachieve": 2791,
      "Ġnever": 2792,
      "Ġoperations": 2793,
      "ained": 2794,
      "Ġsimpl": 2795,
      "Ġquickly": 2796,
      "Ġtarget": 2797,
      "Ġbegan": 2798,
      "Ġimagine": 2799,
      "Ġcustomer": 2800,
      "Ġfavor": 2801,
      "Ġschool": 2802,
      "Ġpay": 2803,
      "Ġfour": 2804,
      "Ġrules": 2805,
      "Ġproject": 2806,
      "ĠSpec": 2807,
      "Ġcomprehensive": 2808,
      "Ġlessons": 2809,
      ")^": 2810,
      "umb": 2811,
      "irm": 2812,
      "Ġsolid": 2813,
      "Ġlittle": 2814,
      "Ġespecially": 2815,
      "Ġmere": 2816,
      "Ġproperty": 2817,
      "Ġhy": 2818,
      "Ġshape": 2819,
      "Ġhowever": 2820,
      "Ġanim": 2821,
      "isms": 2822,
      "ativity": 2823,
      "arily": 2824,
      "ĠAlex": 2825,
      "Ġserves": 2826,
      "Ġmoment": 2827,
      "Ġwal": 2828,
      "Ġexciting": 2829,
      "Ġamidst": 2830,
      "Ġfundam": 2831,
      "Ġreturn": 2832,
      "Ġsmoo": 2833,
      "Ġresulting": 2834,
      "Ġnamed": 2835,
      "Ġlooking": 2836,
      "Ġcontem": 2837,
      "Ġrout": 2838,
      "Ġengine": 2839,
      "Ġfinal": 2840,
      "Ġmodel": 2841,
      "Ġstrugg": 2842,
      "zz": 2843,
      "Ġupd": 2844,
      "ĠStr": 2845,
      "Ġrig": 2846,
      "Ġdistinct": 2847,
      "Ġsize": 2848,
      "Ġregion": 2849,
      "Ġobj": 2850,
      "Ġdefin": 2851,
      "Ġwee": 2852,
      "Ġabs": 2853,
      "Ġpartn": 2854,
      "Ġfoster": 2855,
      "Ġgreat": 2856,
      "Ġextract": 2857,
      "Ġcand": 2858,
      "ingly": 2859,
      "Ġrisks": 2860,
      "Ġsepar": 2861,
      "ores": 2862,
      "itable": 2863,
      "Ġther": 2864,
      "Ġrefer": 2865,
      "Ġprofessionals": 2866,
      "Ġdr": 2867,
      "Ġinnovation": 2868,
      "Ġreview": 2869,
      "ĠÎ": 2870,
      "Ġouts": 2871,
      "Ġflow": 2872,
      "ression": 2873,
      "Ġrealized": 2874,
      "Ġsearch": 2875,
      "Ġconver": 2876,
      "Ġsources": 2877,
      "Ġinterests": 2878,
      "Ġdiscovered": 2879,
      "Ġconnection": 2880,
      "Ġcross": 2881,
      "ĠPrac": 2882,
      "pping": 2883,
      "ĠZ": 2884,
      "Ġcosts": 2885,
      "ystem": 2886,
      "ians": 2887,
      "Ġenab": 2888,
      "ounts": 2889,
      "irt": 2890,
      "going": 2891,
      "Ġconduc": 2892,
      "aves": 2893,
      "ug": 2894,
      "Ġcommitment": 2895,
      "Ġwords": 2896,
      "Ġresilience": 2897,
      "duce": 2898,
      "Ġautom": 2899,
      "ĠâĪ": 2900,
      "ĠEach": 2901,
      "tivity": 2902,
      "Ġcareful": 2903,
      "ĠTherefore": 2904,
      "ender": 2905,
      "Ġitems": 2906,
      "Ġdoing": 2907,
      "angle": 2908,
      "Ġmach": 2909,
      "Ġsection": 2910,
      "Ġforward": 2911,
      "ĠInstead": 2912,
      "Ġexamine": 2913,
      "Ġenhancing": 2914,
      "Ġcontinued": 2915,
      "Ġenvironmental": 2916,
      "Ġpair": 2917,
      "ids": 2918,
      "Ġinvolve": 2919,
      "Ġtraining": 2920,
      "Ġadding": 2921,
      "Ġkind": 2922,
      "Ġproduction": 2923,
      "ibilities": 2924,
      "ĠTheir": 2925,
      "Ġapplying": 2926,
      "ised": 2927,
      "usive": 2928,
      "ird": 2929,
      "Ġenth": 2930,
      "Ġfoot": 2931,
      "However": 2932,
      "Ġsquare": 2933,
      "Ġcompany": 2934,
      "Ġdaily": 2935,
      "Ġguid": 2936,
      ")$": 2937,
      "Ġmentioned": 2938,
      "Ġcut": 2939,
      "Ġeverything": 2940,
      "Ġing": 2941,
      "Ġservice": 2942,
      "usi": 2943,
      "Ġprograms": 2944,
      "Ġparts": 2945,
      "Ġheav": 2946,
      "Ġsubs": 2947,
      "aste": 2948,
      "astly": 2949,
      "ĠOr": 2950,
      "Ġconsistent": 2951,
      "Ġencounter": 2952,
      "Ġtypically": 2953,
      "aper": 2954,
      "Ġmatter": 2955,
      "Ġformula": 2956,
      "let": 2957,
      "!\"": 2958,
      "'ve": 2959,
      "Ġstructures": 2960,
      "Ġreducing": 2961,
      "Ġoptimal": 2962,
      "ager": 2963,
      "Ġfascinating": 2964,
      "uly": 2965,
      "Ġhours": 2966,
      "Ġdim": 2967,
      "ĠInt": 2968,
      "Ġskin": 2969,
      "eta": 2970,
      "ĠKeep": 2971,
      "Ġstate": 2972,
      "Ġap": 2973,
      "Ġmathematical": 2974,
      "Ġinvestig": 2975,
      "Ġcraf": 2976,
      "ĠAnal": 2977,
      "Ġdesired": 2978,
      "Ġsmaller": 2979,
      "Ġobtain": 2980,
      "Ġapply": 2981,
      "Ġseries": 2982,
      "Ġsense": 2983,
      "Ġasked": 2984,
      "uing": 2985,
      "Ġcarefully": 2986,
      "Ġvide": 2987,
      "Ġwarm": 2988,
      "orough": 2989,
      "Ġexpand": 2990,
      "Ġrev": 2991,
      "Ġpoly": 2992,
      "Ġlower": 2993,
      "Ġinstit": 2994,
      "Ġenthusi": 2995,
      "af": 2996,
      "Ġste": 2997,
      "ĠNew": 2998,
      "Ġevidence": 2999,
      "eless": 3000,
      "athy": 3001,
      "anging": 3002,
      "=\\": 3003,
      "Ġpreferences": 3004,
      "making": 3005,
      "Ġrequirements": 3006,
      "Ġcustomers": 3007,
      "Ġdetail": 3008,
      "ĠMr": 3009,
      "Ġplayers": 3010,
      "ĠAss": 3011,
      "ball": 3012,
      "Ġsignificance": 3013,
      "Ġintricate": 3014,
      "Ġembracing": 3015,
      "Ġdescrib": 3016,
      "Ġfilled": 3017,
      "Ġexisting": 3018,
      "Ġidea": 3019,
      "itch": 3020,
      "ops": 3021,
      "Ġexactly": 3022,
      "ifying": 3023,
      "utes": 3024,
      "areness": 3025,
      "Ġcloser": 3026,
      "Ġadvanced": 3027,
      "Ġadop": 3028,
      "ĠSe": 3029,
      "Ġidentity": 3030,
      "Ġcame": 3031,
      "icate": 3032,
      "Ġtest": 3033,
      "Ġresponsible": 3034,
      "Ġdistribution": 3035,
      "Ġ($": 3036,
      "Ġcore": 3037,
      "Ġopportunity": 3038,
      "Ġsay": 3039,
      "ĠPer": 3040,
      "lo": 3041,
      "ton": 3042,
      "Another": 3043,
      "Ġbar": 3044,
      "equently": 3045,
      "Ġstudies": 3046,
      "Ġbase": 3047,
      "omial": 3048,
      "edd": 3049,
      "head": 3050,
      "Ġsaid": 3051,
      "At": 3052,
      "Ġgoing": 3053,
      "Ġshaping": 3054,
      "ĠSarah": 3055,
      "left": 3056,
      "Ġinnovative": 3057,
      "Ġprimary": 3058,
      "Ġexh": 3059,
      "Ġdetermine": 3060,
      "Ġjob": 3061,
      "ĠKey": 3062,
      "Ġpiece": 3063,
      "Ġdetails": 3064,
      "come": 3065,
      "Ġtry": 3066,
      "Ġopp": 3067,
      "Ġliving": 3068,
      "Ġrecord": 3069,
      "Ġphot": 3070,
      "Ġjoin": 3071,
      "Ġfundamental": 3072,
      "ished": 3073,
      "hes": 3074,
      "Ġgrad": 3075,
      "Ġspirit": 3076,
      "Ġlow": 3077,
      "Ġrefers": 3078,
      "Ġpieces": 3079,
      "ival": 3080,
      "Ġdepending": 3081,
      "Ġreli": 3082,
      "Ġsuper": 3083,
      "Ġdeg": 3084,
      "Ġtruly": 3085,
      "iment": 3086,
      "Ġtemper": 3087,
      "Ġbond": 3088,
      "reen": 3089,
      "Ġerr": 3090,
      "Ġrange": 3091,
      "Ġapproxim": 3092,
      "Ġmedical": 3093,
      "Ġenabling": 3094,
      "Ġname": 3095,
      "Ġcontinuous": 3096,
      "ĠPar": 3097,
      "Ġlegal": 3098,
      "For": 3099,
      "Ġprojects": 3100,
      "Ġvo": 3101,
      "ĠPh": 3102,
      "Ġmodels": 3103,
      "ably": 3104,
      "Ġcamp": 3105,
      "iter": 3106,
      "ĠThus": 3107,
      "Ġâ": 3108,
      "atter": 3109,
      "Ġlif": 3110,
      "sy": 3111,
      "cle": 3112,
      "Ġagre": 3113,
      "Ġpolicies": 3114,
      "Ġalternative": 3115,
      "Ġmanaging": 3116,
      "vation": 3117,
      "Ġdemand": 3118,
      "Ġfelt": 3119,
      "Ġfit": 3120,
      "oming": 3121,
      "uty": 3122,
      "Ġalike": 3123,
      "ony": 3124,
      "Ġongoing": 3125,
      "ocks": 3126,
      "Be": 3127,
      "Ġbrand": 3128,
      "ĠWor": 3129,
      "Ġincreasingly": 3130,
      "Ġextra": 3131,
      "ĠEng": 3132,
      "ĠUnit": 3133,
      "Ġeasy": 3134,
      "ole": 3135,
      "Ġlarger": 3136,
      "Ġmix": 3137,
      "ensions": 3138,
      "Imagine": 3139,
      "Ġnarra": 3140,
      "where": 3141,
      "Ġdiag": 3142,
      "Ġdenot": 3143,
      "Ġfaced": 3144,
      "Ġillustr": 3145,
      "world": 3146,
      "itor": 3147,
      "\\_{": 3148,
      "Ġdial": 3149,
      "Ġlandscape": 3150,
      "Ġinj": 3151,
      "Ġguidel": 3152,
      "Ġsoftware": 3153,
      "icial": 3154,
      "med": 3155,
      "Ġpurs": 3156,
      "Ġscience": 3157,
      "Ġrobust": 3158,
      "rim": 3159,
      "ĠConsequently": 3160,
      "icro": 3161,
      "Ġgoal": 3162,
      "iosity": 3163,
      "Ġsymb": 3164,
      "Ġspeed": 3165,
      "resh": 3166,
      "Ġdivid": 3167,
      "000": 3168,
      "sh": 3169,
      "based": 3170,
      "Ġstress": 3171,
      "rast": 3172,
      "Ġbroader": 3173,
      "Ġflex": 3174,
      "Ġoutside": 3175,
      "entic": 3176,
      "ĠExam": 3177,
      "Ġwatch": 3178,
      "verage": 3179,
      "Ġmeaningful": 3180,
      "Ġpolitical": 3181,
      "Ġrigor": 3182,
      "active": 3183,
      "Ġefficiency": 3184,
      "Ġmis": 3185,
      "uter": 3186,
      "Ġinternational": 3187,
      "ĠChris": 3188,
      "Ġintroduc": 3189,
      "pectives": 3190,
      "Ġsubst": 3191,
      "Ġconsidering": 3192,
      "Ġemotional": 3193,
      "Ġexamining": 3194,
      "Ġparam": 3195,
      "Ġmut": 3196,
      "Ġsmooth": 3197,
      "Ġcouldn": 3198,
      "Ġpros": 3199,
      "uild": 3200,
      "unch": 3201,
      "Ġlinear": 3202,
      "Ġappreciation": 3203,
      "sqrt": 3204,
      "Ġstay": 3205,
      "Ġstrategy": 3206,
      "Ġexploration": 3207,
      "emic": 3208,
      "Ġsafe": 3209,
      "Ġtown": 3210,
      "Ġstrategic": 3211,
      "Ġbeauti": 3212,
      "Ġindepend": 3213,
      "Ġtasks": 3214,
      "Ġchoose": 3215,
      "Ġunderlying": 3216,
      "Ġmonth": 3217,
      "ĠĠĠĠĠĠĠĠ": 3218,
      "ishing": 3219,
      "Ġpassion": 3220,
      "encing": 3221,
      "Ġauthor": 3222,
      "tif": 3223,
      "Ġkne": 3224,
      "Ġwind": 3225,
      "ĠOur": 3226,
      "Ġpurch": 3227,
      "ĠEv": 3228,
      "Ġpromote": 3229,
      "Ġdays": 3230,
      "Ġempower": 3231,
      "Ġgive": 3232,
      "Ġthorough": 3233,
      "Ġframe": 3234,
      "Ġrespective": 3235,
      "Ġmatrix": 3236,
      "Ġbackground": 3237,
      "Ġcity": 3238,
      "Ġsurface": 3239,
      "like": 3240,
      "ĠBl": 3241,
      "Ġpotentially": 3242,
      "Ġcolle": 3243,
      "ĠExpl": 3244,
      "Ġoffering": 3245,
      "Ġdifference": 3246,
      "Ġhid": 3247,
      "ternal": 3248,
      "Ġcateg": 3249,
      "Ġexec": 3250,
      "Ġwhole": 3251,
      "Ġpossess": 3252,
      "ĠSince": 3253,
      "Ġequations": 3254,
      "Ġchoices": 3255,
      ")\\": 3256,
      "Ġcontemporary": 3257,
      "Ġstream": 3258,
      "Ġage": 3259,
      "Ġworth": 3260,
      "ĠAmerican": 3261,
      "Ġcompanies": 3262,
      "Ġtool": 3263,
      "Ġhon": 3264,
      "Ġsociety": 3265,
      "alf": 3266,
      "Ġroot": 3267,
      "Ġqual": 3268,
      "Ġexpectations": 3269,
      "Ġconflic": 3270,
      "Ġinher": 3271,
      "Ġroles": 3272,
      "Ġfactor": 3273,
      "Ġseemingly": 3274,
      "ster": 3275,
      "pose": 3276,
      "Ġsettings": 3277,
      "Ġmanage": 3278,
      "ls": 3279,
      "Ġnavigate": 3280,
      "itation": 3281,
      "gor": 3282,
      "Ġren": 3283,
      "Course": 3284,
      "Ġimplications": 3285,
      "Ġroom": 3286,
      "Ġsecure": 3287,
      "Ġann": 3288,
      "Ġsituations": 3289,
      "ĠSpecific": 3290,
      "Ġdoesn": 3291,
      "ĠTechn": 3292,
      "ultane": 3293,
      "eral": 3294,
      "ĠMark": 3295,
      "Ġcreativity": 3296,
      "Ġvariables": 3297,
      "Ġrate": 3298,
      "ticip": 3299,
      "Ġpressure": 3300,
      "Ġcannot": 3301,
      "Ġexpos": 3302,
      "Ġdeliver": 3303,
      "Ġcele": 3304,
      "```": 3305,
      "Ġimmedi": 3306,
      "Ġlater": 3307,
      "Ġshowc": 3308,
      "Ġaimed": 3309,
      "Ġbring": 3310,
      "Ġmass": 3311,
      "ĠSimilar": 3312,
      "icated": 3313,
      "Ġwar": 3314,
      "ĠPers": 3315,
      "Ġthinking": 3316,
      "Ġcuriosity": 3317,
      "Ġadvance": 3318,
      "Ġresponse": 3319,
      "Ġactions": 3320,
      "ĠChristi": 3321,
      "Ġinfluence": 3322,
      "ouch": 3323,
      "Ġspaces": 3324,
      "Ġdiffic": 3325,
      "Ġrecomm": 3326,
      "sych": 3327,
      "Ġexch": 3328,
      "Ġlocation": 3329,
      "Ġreduce": 3330,
      "Ġforce": 3331,
      "Ġtopics": 3332,
      "Ġorganization": 3333,
      "iny": 3334,
      "Ġthus": 3335,
      "Ġperspectives": 3336,
      "Ġcreative": 3337,
      "Ġmor": 3338,
      "uck": 3339,
      "gorith": 3340,
      "Ġyear": 3341,
      "Ġetc": 3342,
      "Ġsimply": 3343,
      "ĠBen": 3344,
      "Ġimproved": 3345,
      "Ġprep": 3346,
      "Ġestablished": 3347,
      "bra": 3348,
      "Ġtechnologies": 3349,
      "Ġincrease": 3350,
      "Ġplaying": 3351,
      "Ġbecame": 3352,
      "Ġdev": 3353,
      "Ġpolicy": 3354,
      "Ġstandard": 3355,
      "Ġcollective": 3356,
      "Ġweight": 3357,
      "fficient": 3358,
      "apid": 3359,
      "uts": 3360,
      "wise": 3361,
      "ilt": 3362,
      "ĠSam": 3363,
      "Ġsole": 3364,
      "ĠSer": 3365,
      "Ġquanti": 3366,
      "ceed": 3367,
      "Ġball": 3368,
      "Ġstarting": 3369,
      "Ġeyes": 3370,
      "ĠGod": 3371,
      "Ġartic": 3372,
      "ohn": 3373,
      "Ġappreciate": 3374,
      "ĠDef": 3375,
      "Ġfamiliar": 3376,
      "Ġfellow": 3377,
      "Ġcompos": 3378,
      "Ġinspir": 3379,
      "ĠSec": 3380,
      "Ġcounter": 3381,
      "Ġingred": 3382,
      "ectors": 3383,
      "Ġdifferences": 3384,
      "Ġcool": 3385,
      "Ġdevices": 3386,
      "Ġdistance": 3387,
      "Ġgames": 3388,
      "Ġput": 3389,
      "ipment": 3390,
      "ĠIntroduction": 3391,
      "Ġloved": 3392,
      "Ch": 3393,
      "Ġboundaries": 3394,
      "aced": 3395,
      "inations": 3396,
      "eter": 3397,
      "Ġresid": 3398,
      "Ġcircum": 3399,
      "Guidel": 3400,
      "inate": 3401,
      "Ġsides": 3402,
      "ĠUse": 3403,
      "Ġloss": 3404,
      "ĠCre": 3405,
      "Ġcoord": 3406,
      "Ġvi": 3407,
      "Ġdialog": 3408,
      "ene": 3409,
      "Ġbasic": 3410,
      "ighb": 3411,
      "Ġfail": 3412,
      "Ġeconomic": 3413,
      "Ġguidelines": 3414,
      "force": 3415,
      "Ġtakes": 3416,
      "tise": 3417,
      "IV": 3418,
      "Ġderiv": 3419,
      "while": 3420,
      "Ġethical": 3421,
      "being": 3422,
      "ĠAccording": 3423,
      "Ġcorrect": 3424,
      "Ġarch": 3425,
      "ĠSch": 3426,
      "Ġland": 3427,
      "Ġrigorous": 3428,
      "Ġappl": 3429,
      "acts": 3430,
      "Ġrecip": 3431,
      "Ġinsp": 3432,
      "ĠWhat": 3433,
      "Ġempathy": 3434,
      "ĠEnc": 3435,
      "Ġcultiv": 3436,
      "Ġhor": 3437,
      "Ġtook": 3438,
      "ĠÃ": 3439,
      "Ġchanging": 3440,
      "Ġsequence": 3441,
      "Ġfeedback": 3442,
      "Ġinteractions": 3443,
      "ĠTip": 3444,
      "use": 3445,
      "Ġled": 3446,
      "ectives": 3447,
      "Ġenvironments": 3448,
      "Ġdeveloping": 3449,
      "iance": 3450,
      "Ġcapable": 3451,
      "Ġvector": 3452,
      "Ġsil": 3453,
      "Ġissue": 3454,
      "esearch": 3455,
      "Ġgather": 3456,
      "emp": 3457,
      "urance": 3458,
      "Ġchann": 3459,
      "Ġheight": 3460,
      "Ġinterven": 3461,
      "land": 3462,
      "iles": 3463,
      "ultaneously": 3464,
      "raction": 3465,
      "astic": 3466,
      "ĠGo": 3467,
      "Ġexperienced": 3468,
      "Ġnote": 3469,
      "Ġdedicated": 3470,
      "egin": 3471,
      "ĠIs": 3472,
      "Ġarri": 3473,
      "utri": 3474,
      "ront": 3475,
      "alle": 3476,
      "Ġpack": 3477,
      "Ġsolving": 3478,
      "Ġdiscussing": 3479,
      "Ġliter": 3480,
      "ĠJust": 3481,
      "Ġeye": 3482,
      "Ġseam": 3483,
      "oud": 3484,
      "auty": 3485,
      "Ġconcer": 3486,
      "Ġrights": 3487,
      "Ġteams": 3488,
      "ĠPol": 3489,
      "Ġanalyzing": 3490,
      "Ġalongside": 3491,
      "Ġchildren": 3492,
      "ĠUsing": 3493,
      "Ġ200": 3494,
      "Ġproced": 3495,
      "Ġrule": 3496,
      "dom": 3497,
      "Ġeducational": 3498,
      "bility": 3499,
      "ĠHis": 3500,
      "Ġpropos": 3501,
      "Ġeffects": 3502,
      "Ġtransport": 3503,
      "ifies": 3504,
      "osen": 3505,
      "istics": 3506,
      "Before": 3507,
      "Ġguidance": 3508,
      "Ġvary": 3509,
      "Ġestim": 3510,
      "aign": 3511,
      "tial": 3512,
      "lim": 3513,
      "met": 3514,
      "Ġsituation": 3515,
      "Ġeffort": 3516,
      "Ġtreatment": 3517,
      "ivers": 3518,
      "Ġbreath": 3519,
      "Ġsyn": 3520,
      "Ġwasn": 3521,
      "ĠCho": 3522,
      "Ġinitially": 3523,
      "quality": 3524,
      "Ġthereby": 3525,
      "Ġnor": 3526,
      "ĠSet": 3527,
      "dd": 3528,
      "uine": 3529,
      "Ġfair": 3530,
      "ĠMy": 3531,
      "Ġlive": 3532,
      "Ġstra": 3533,
      "iences": 3534,
      "Ġtrack": 3535,
      "Ġur": 3536,
      "Ġacqu": 3537,
      "Ġtherap": 3538,
      "ĠPre": 3539,
      "Ġcases": 3540,
      "Ġprepar": 3541,
      "Ġalgorith": 3542,
      "Ġthreat": 3543,
      "Ġslow": 3544,
      "oti": 3545,
      "Ġauthentic": 3546,
      "Ġ>": 3547,
      "ĠInter": 3548,
      "Ġneighb": 3549,
      "Ġrapid": 3550,
      "lation": 3551,
      "Ġreput": 3552,
      "Ġstraight": 3553,
      "lam": 3554,
      "Ġgra": 3555,
      "Ġenable": 3556,
      "ification": 3557,
      "tr": 3558,
      "ĠLe": 3559,
      "acking": 3560,
      "ille": 3561,
      "Ġelement": 3562,
      "ĠBr": 3563,
      "Ġinstruc": 3564,
      "Ġexamples": 3565,
      "Ġpush": 3566,
      "he": 3567,
      "ulate": 3568,
      "ffer": 3569,
      "Ġexpertise": 3570,
      "Ġawareness": 3571,
      "gebra": 3572,
      "ued": 3573,
      "ested": 3574,
      "Ġstandards": 3575,
      "Ġadventure": 3576,
      "Ġimplementing": 3577,
      "Ġhidden": 3578,
      "odies": 3579,
      "Ġvisit": 3580,
      "Ġsolely": 3581,
      "Ġhope": 3582,
      "man": 3583,
      "sin": 3584,
      "Ġhar": 3585,
      "Ġrequiring": 3586,
      "onom": 3587,
      "jor": 3588,
      "andom": 3589,
      "cd": 3590,
      "ĠSpecifically": 3591,
      "Ġlab": 3592,
      "Ġdynamics": 3593,
      "Ġtoward": 3594,
      "ooks": 3595,
      "az": 3596,
      "Ġtalk": 3597,
      "ributions": 3598,
      "Ġwhenever": 3599,
      "Ġprioriti": 3600,
      "Ġcontain": 3601,
      "Ġleads": 3602,
      "Ġbeautiful": 3603,
      "ĠDr": 3604,
      "oes": 3605,
      "aff": 3606,
      "Ġrespond": 3607,
      "inf": 3608,
      "ormal": 3609,
      "Ġacknow": 3610,
      "urning": 3611,
      "Ġpaper": 3612,
      "ĠSimilarly": 3613,
      "Ġintegration": 3614,
      "Ġinstall": 3615,
      "inist": 3616,
      "ups": 3617,
      "Ġclim": 3618,
      "Ġsustainable": 3619,
      "Ġseamless": 3620,
      "ĠOp": 3621,
      "bles": 3622,
      "Ġfollows": 3623,
      "Ġaccurate": 3624,
      "hic": 3625,
      "Ġfields": 3626,
      "etal": 3627,
      "Ġacad": 3628,
      "Ġbud": 3629,
      ")=": 3630,
      "ructure": 3631,
      "ĠTrans": 3632,
      "Ġgovernment": 3633,
      "Ġfoundation": 3634,
      "Ġelse": 3635,
      "nomial": 3636,
      "aught": 3637,
      "Ġcos": 3638,
      "Ġchosen": 3639,
      "Ġgenuine": 3640,
      "Ġclaim": 3641,
      "outh": 3642,
      "Ġbeauty": 3643,
      "Ġapart": 3644,
      "Ġcapabilities": 3645,
      "Ġexternal": 3646,
      "Ġblock": 3647,
      "Ġconversations": 3648,
      "Ġmotiv": 3649,
      "Ġtable": 3650,
      "Ġ[": 3651,
      "Ġcontributing": 3652,
      "Ġimprovement": 3653,
      "Ġanti": 3654,
      "}^{": 3655,
      "acing": 3656,
      "apter": 3657,
      "Ġfeature": 3658,
      "Ġseason": 3659,
      "Ġshif": 3660,
      "ĠJohn": 3661,
      "Ġhands": 3662,
      "Ġinitiatives": 3663,
      "Ġknew": 3664,
      "Ġvibr": 3665,
      "ĠRegular": 3666,
      "ĠFirst": 3667,
      "Ġfa": 3668,
      "Ġcomputer": 3669,
      "Ġdealing": 3670,
      "Ġstatis": 3671,
      "Ġselecting": 3672,
      "Ġcondition": 3673,
      "Ġarrang": 3674,
      "ounting": 3675,
      "ĠResearch": 3676,
      "Ġwide": 3677,
      "ĠMon": 3678,
      "Ġcolors": 3679,
      "wide": 3680,
      "Ġmatch": 3681,
      "ĠSuch": 3682,
      "Finally": 3683,
      "rip": 3684,
      "Ġturned": 3685,
      "holders": 3686,
      "ured": 3687,
      "cer": 3688,
      "Ġdiscussion": 3689,
      "Ġclients": 3690,
      "Ġstates": 3691,
      "akers": 3692,
      "ĠAlthough": 3693,
      "Ġdest": 3694,
      "ills": 3695,
      "ĠStrateg": 3696,
      "Ġamount": 3697,
      "aken": 3698,
      "ger": 3699,
      "Ġfavorite": 3700,
      "ĠIdentif": 3701,
      "cing": 3702,
      "Ġsched": 3703,
      "uments": 3704,
      "Ġconsequ": 3705,
      "Ġmoving": 3706,
      "Ġwrit": 3707,
      "Ġgrowing": 3708,
      "ĠMay": 3709,
      "Ġtranspar": 3710,
      "Ġdamage": 3711,
      "oor": 3712,
      "ows": 3713,
      "Ġleaving": 3714,
      "ler": 3715,
      "appy": 3716,
      "Ġexpressions": 3717,
      "Ġcry": 3718,
      "Ġexhib": 3719,
      "Ġparties": 3720,
      "Ġdat": 3721,
      "Ġ$(": 3722,
      "Ġinput": 3723,
      "ubs": 3724,
      "Ġhab": 3725,
      "Ġcalculate": 3726,
      "It": 3727,
      "Ġhealthy": 3728,
      "Ġgreen": 3729,
      "eanwhile": 3730,
      "Ã©": 3731,
      "Ġtrying": 3732,
      "Ġexists": 3733,
      "Ġactivity": 3734,
      "Ġconstit": 3735,
      "Ġlast": 3736,
      "Ġcampaign": 3737,
      "Ġcreated": 3738,
      "ĠEncour": 3739,
      "Ġeasier": 3740,
      "rics": 3741,
      "Ġadvoc": 3742,
      "atively": 3743,
      "Ġnu": 3744,
      "uel": 3745,
      "Ġtheory": 3746,
      "ĠCommun": 3747,
      "Ġdise": 3748,
      "Ġequipment": 3749,
      "co": 3750,
      "Ġhalf": 3751,
      "Ġstake": 3752,
      "Ġhighlights": 3753,
      "Ġrein": 3754,
      "ott": 3755,
      "Guideline": 3756,
      "gen": 3757,
      "Ġcontaining": 3758,
      "Ġmanufacturing": 3759,
      "yle": 3760,
      "ĠWhether": 3761,
      "ned": 3762,
      "Ġmoney": 3763,
      "Ġanalyze": 3764,
      "enses": 3765,
      "Ġvirt": 3766,
      "Ġdiscussions": 3767,
      "Ġvalid": 3768,
      "Ġadded": 3769,
      "Ġspread": 3770,
      "Ġcheck": 3771,
      "cious": 3772,
      "ĠDespite": 3773,
      "bs": 3774,
      "Ġknowing": 3775,
      "Ġabilities": 3776,
      ",\\": 3777,
      "Ġsimultaneously": 3778,
      "Ġconfidence": 3779,
      "Ġnews": 3780,
      "Ġdidn": 3781,
      "Ġlived": 3782,
      "Ġpsych": 3783,
      "essions": 3784,
      "roll": 3785,
      "Ġconversation": 3786,
      "itig": 3787,
      "Ġpatient": 3788,
      "Ġdocument": 3789,
      "ĠEar": 3790,
      "Ġcausing": 3791,
      "Ġimproving": 3792,
      "nit": 3793,
      "Ġmoments": 3794,
      "Ġsoon": 3795,
      "Ġcam": 3796,
      "Ġvideo": 3797,
      "Ġwin": 3798,
      "sequ": 3799,
      "ĠAv": 3800,
      "Ġscenarios": 3801,
      "Ġexcell": 3802,
      "Ġexcl": 3803,
      "Ġnich": 3804,
      "ina": 3805,
      "ĠÃĹ": 3806,
      "Ġconstr": 3807,
      "Ġindeed": 3808,
      "cal": 3809,
      "ares": 3810,
      "Ġinters": 3811,
      "Ġblocks": 3812,
      "Ġexcess": 3813,
      "Ġdemonstrate": 3814,
      "owers": 3815,
      "Ġcircumst": 3816,
      "Ġpreserving": 3817,
      "Ġoffered": 3818,
      "Ġfix": 3819,
      "Ġaccordingly": 3820,
      "Ġhost": 3821,
      "Ġinherent": 3822,
      "Ġefficient": 3823,
      "ewel": 3824,
      "Ġcomplexity": 3825,
      "Ġpolynomial": 3826,
      "ĠRep": 3827,
      "ogether": 3828,
      "Ġmutual": 3829,
      "------------": 3830,
      "Ġangle": 3831,
      "ĠIts": 3832,
      "Ġreduced": 3833,
      "ĠCo": 3834,
      "Ġthri": 3835,
      "Ġrelig": 3836,
      "Ġprotection": 3837,
      "bo": 3838,
      "acters": 3839,
      "ĠNo": 3840,
      "Ġemotions": 3841,
      "Ġworry": 3842,
      "Ġgeneral": 3843,
      "III": 3844,
      "We": 3845,
      "Ġmid": 3846,
      "ĠMe": 3847,
      "lear": 3848,
      "ticed": 3849,
      "Ġinstitutions": 3850,
      "ressive": 3851,
      "ĠIns": 3852,
      "ightly": 3853,
      "Ġsales": 3854,
      "Ġtang": 3855,
      "udden": 3856,
      "ellig": 3857,
      "Ġcareer": 3858,
      "Ġbelief": 3859,
      "ĠNot": 3860,
      "Ġobjects": 3861,
      "ev": 3862,
      "Ġchem": 3863,
      "Ġprivacy": 3864,
      "Ġresource": 3865,
      "ring": 3866,
      "Ġprecise": 3867,
      "oon": 3868,
      "Ġusage": 3869,
      "Ġcelebr": 3870,
      "Ġnovel": 3871,
      "tenance": 3872,
      "Ġdifficult": 3873,
      "Ġplans": 3874,
      "ĠMed": 3875,
      "Ġbrow": 3876,
      "Ġvehic": 3877,
      "ĠGr": 3878,
      "Ġinteresting": 3879,
      "Ġreson": 3880,
      "Ġmiss": 3881,
      "Ġmechanisms": 3882,
      "ĠHappy": 3883,
      "cent": 3884,
      "Ġminimize": 3885,
      "ipl": 3886,
      "Ġclosely": 3887,
      "Ġsle": 3888,
      "ades": 3889,
      "Ġanswer": 3890,
      "Ġmanip": 3891,
      "Ġaddition": 3892,
      "Ġcop": 3893,
      "Ġforces": 3894,
      "Ġnavigating": 3895,
      "mit": 3896,
      "Ġchoosing": 3897,
      "uilding": 3898,
      "Ġprobability": 3899,
      "Ġpatience": 3900,
      "ractions": 3901,
      "Ġdur": 3902,
      "ĠChristian": 3903,
      "ctions": 3904,
      "Ġmathematics": 3905,
      "Ġwebsite": 3906,
      "light": 3907,
      "Ġartists": 3908,
      "iction": 3909,
      "ready": 3910,
      "Ġir": 3911,
      "Ġvery": 3912,
      "Ġtax": 3913,
      "aints": 3914,
      "avors": 3915,
      "Ġable": 3916,
      "Ġmovement": 3917,
      "With": 3918,
      "Ġcenter": 3919,
      "Ġcutting": 3920,
      "Ġcircumstances": 3921,
      "Ġdrawing": 3922,
      "Ġfive": 3923,
      "Ġstage": 3924,
      "ought": 3925,
      "Ġcapac": 3926,
      "ĠUp": 3927,
      "Ġdou": 3928,
      "Ġoil": 3929,
      "Ġsn": 3930,
      "Section": 3931,
      "Ġfully": 3932,
      "Ġinvestment": 3933,
      "Ġourselves": 3934,
      "esthe": 3935,
      "Ġgives": 3936,
      "Ġmajor": 3937,
      "ulner": 3938,
      "Ġalgebra": 3939,
      "Ġaudience": 3940,
      "Lastly": 3941,
      "Ġintrig": 3942,
      "pped": 3943,
      "ratic": 3944,
      "Ġseek": 3945,
      "Ġcollection": 3946,
      "Ġcode": 3947,
      "Ġaudiences": 3948,
      "Ġhoriz": 3949,
      "xi": 3950,
      "itiz": 3951,
      "ography": 3952,
      "Next": 3953,
      "Ġtoys": 3954,
      "ĠMod": 3955,
      "Ġstyle": 3956,
      "####": 3957,
      "mathbb": 3958,
      "Ġfresh": 3959,
      "Ġcorresponding": 3960,
      "Ġconsideration": 3961,
      "Ġseemed": 3962,
      "Ġbenefit": 3963,
      "Ġingredients": 3964,
      "Ġhair": 3965,
      "Ġalready": 3966,
      "Ġconsequences": 3967,
      "Ġprice": 3968,
      "Ġequals": 3969,
      "Ġcurious": 3970,
      "Ġsus": 3971,
      "Ġthemes": 3972,
      "Ġtip": 3973,
      "Firstly": 3974,
      "yth": 3975,
      "Ġchannels": 3976,
      "Ġcontact": 3977,
      "ĠFr": 3978,
      "Ġcat": 3979,
      "Ġnutri": 3980,
      "illing": 3981,
      "Ġgained": 3982,
      "Ġinterpret": 3983,
      "anation": 3984,
      "Ġwomen": 3985,
      "Ġnotice": 3986,
      "tiveness": 3987,
      "Ġvariable": 3988,
      "onic": 3989,
      "Ġport": 3990,
      "Ġintegral": 3991,
      "Ġcater": 3992,
      "Ġadvantages": 3993,
      "Ġleast": 3994,
      "orem": 3995,
      "Ġnetworks": 3996,
      "Ġradi": 3997,
      "ĠUtil": 3998,
      "Ġfru": 3999,
      "ipped": 4000,
      "entific": 4001,
      "ĠCar": 4002,
      "lection": 4003,
      "Ġtack": 4004,
      "Ġresponsibility": 4005,
      "Ġcard": 4006,
      "Ġstability": 4007,
      "coming": 4008,
      "Ġwriting": 4009,
      "itoring": 4010,
      "Ġten": 4011,
      "osph": 4012,
      "Ġaspir": 4013,
      "Ġcompl": 4014,
      "orial": 4015,
      "Ġkeeping": 4016,
      "Ġniche": 4017,
      "Ġdynamic": 4018,
      "bit": 4019,
      "Ġmaster": 4020,
      "Ġpresented": 4021,
      "prise": 4022,
      "Ġbelong": 4023,
      "icious": 4024,
      "Ġregul": 4025,
      "Ġroll": 4026,
      "Ġahead": 4027,
      "Ġactually": 4028,
      "Ġobjectives": 4029,
      "Ġcharacters": 4030,
      "Ġlimited": 4031,
      "Ġphen": 4032,
      "Ġunits": 4033,
      "Ġtouch": 4034,
      "ÏĢ": 4035,
      "(-": 4036,
      "ultural": 4037,
      "Ġrandom": 4038,
      "Ġunders": 4039,
      "ĠOnce": 4040,
      "Ġjud": 4041,
      "Ġmill": 4042,
      "uzz": 4043,
      "iversity": 4044,
      "Ġdialogue": 4045,
      "Ġimag": 4046,
      "Ġclar": 4047,
      "Ġarts": 4048,
      "iors": 4049,
      "Ġweek": 4050,
      "ĠHer": 4051,
      "Ġheat": 4052,
      "Ġpresence": 4053,
      "assion": 4054,
      "Ġstakeholders": 4055,
      "Ġartis": 4056,
      "ux": 4057,
      "Ġintro": 4058,
      "eli": 4059,
      "Ġproceed": 4060,
      "Ġviol": 4061,
      "Ġinfin": 4062,
      "Ġfosters": 4063,
      "ewelry": 4064,
      "Ġsin": 4065,
      "Ġdedication": 4066,
      "Ġfeelings": 4067,
      "Ġsatisfaction": 4068,
      "pper": 4069,
      "Ġgiving": 4070,
      "Ġfindings": 4071,
      "urt": 4072,
      "Ġhol": 4073,
      "rought": 4074,
      "Ġnetwork": 4075,
      "plement": 4076,
      "Ġemerging": 4077,
      "Ġnecessit": 4078,
      "Ġgetting": 4079,
      "Ġvulner": 4080,
      "Ġnoticed": 4081,
      "fford": 4082,
      "Ġconsumers": 4083,
      "Ġunf": 4084,
      "ancy": 4085,
      "Ġdriving": 4086,
      "Ġvibrant": 4087,
      "Ġreason": 4088,
      "Ġpartnership": 4089,
      "ĠMake": 4090,
      "Ġsav": 4091,
      "rich": 4092,
      "Ġcompetitive": 4093,
      "oke": 4094,
      "Ġpatients": 4095,
      "Ġprotect": 4096,
      "Ġsessions": 4097,
      "Ġ$$": 4098,
      "Ġworldwide": 4099,
      "Ġbelow": 4100,
      "Ġfollowed": 4101,
      "Ġchoice": 4102,
      "Ġsolve": 4103,
      "VI": 4104,
      "aming": 4105,
      "urop": 4106,
      "Ġidentifying": 4107,
      "Ġresearchers": 4108,
      "Ġdeeply": 4109,
      "align": 4110,
      "Ġdiversity": 4111,
      "ĠHigh": 4112,
      "Ġflexibility": 4113,
      "nos": 4114,
      "cdot": 4115,
      "Ġheard": 4116,
      "Ġdefined": 4117,
      "iving": 4118,
      "Ġoverl": 4119,
      "eat": 4120,
      "Ġweak": 4121,
      "ello": 4122,
      "Ġfeeling": 4123,
      "Ġhandling": 4124,
      "Ġfigure": 4125,
      "ĠExper": 4126,
      "ĠčĊ": 4127,
      "Ġmatters": 4128,
      "Ġcircle": 4129,
      "ull": 4130,
      "ĠDis": 4131,
      "Ġregulations": 4132,
      "Ġshapes": 4133,
      "ompass": 4134,
      "Ġcountless": 4135,
      "Ġeager": 4136,
      "Ġaesthe": 4137,
      "ĠMain": 4138,
      "Ġbuilt": 4139,
      "riend": 4140,
      "And": 4141,
      "Ġdiscipl": 4142,
      "Ġamb": 4143,
      "ĠOb": 4144,
      "Ġtransformation": 4145,
      "Ġreveal": 4146,
      "Ġla": 4147,
      "hips": 4148,
      "Ġfall": 4149,
      "ĠJam": 4150,
      "ticians": 4151,
      "Ġgenerations": 4152,
      "Ġencompass": 4153,
      "Ġcause": 4154,
      "Ġconcerning": 4155,
      "ĠEst": 4156,
      "Ġexpon": 4157,
      "Through": 4158,
      "ĠThen": 4159,
      "uries": 4160,
      "Ġintegrating": 4161,
      "Ġcurve": 4162,
      "Ġperspective": 4163,
      "ĠTw": 4164,
      "Ġideal": 4165,
      "apes": 4166,
      ")(": 4167,
      "Ġyields": 4168,
      "umbled": 4169,
      "umn": 4170,
      "Ġinequ": 4171,
      "life": 4172,
      "Ġrepresentation": 4173,
      "Ġord": 4174,
      "ronic": 4175,
      "Ġbur": 4176,
      "eterm": 4177,
      ")}": 4178,
      "Ġapproximately": 4179,
      "Ġsubsequ": 4180,
      "ĠDesign": 4181,
      "Ġ12": 4182,
      ")/": 4183,
      "reg": 4184,
      "Ġtrig": 4185,
      "Ġgeomet": 4186,
      "Ġcer": 4187,
      "Ġimage": 4188,
      "Ġscientific": 4189,
      "Ġwanted": 4190,
      "pris": 4191,
      "Ġhouse": 4192,
      "Ġnod": 4193,
      "Ġwellbeing": 4194,
      "Ġfocused": 4195,
      "Ġmys": 4196,
      "Ġcreation": 4197,
      "haps": 4198,
      "icit": 4199,
      "Ġtaken": 4200,
      "Ġpic": 4201,
      "Ġpossibilities": 4202,
      "ffic": 4203,
      "ĠMax": 4204,
      "Ġphenomen": 4205,
      "Ġmultipl": 4206,
      "Ġadvancements": 4207,
      "Ġprofound": 4208,
      "Ġleadership": 4209,
      "Ġcour": 4210,
      "Ġexposure": 4211,
      "Ġoccur": 4212,
      "Ġsupporting": 4213,
      "Ġrati": 4214,
      "Ġhelping": 4215,
      "Ġlearners": 4216,
      "Ġfacilitate": 4217,
      "ĠCan": 4218,
      "Ġnight": 4219,
      "Ġcomprom": 4220,
      "overy": 4221,
      "Ġplayer": 4222,
      "Ġregardless": 4223,
      "Ġacknowled": 4224,
      "Ġmagical": 4225,
      "itect": 4226,
      "Ġconnected": 4227,
      "Ġstronger": 4228,
      "Ġbag": 4229,
      "Ġterr": 4230,
      "Ġstor": 4231,
      "Ġthoughts": 4232,
      "way": 4233,
      "ffective": 4234,
      "Ġpeace": 4235,
      "Ġreflect": 4236,
      "Ġseg": 4237,
      "Ġrealm": 4238,
      "ĠDisc": 4239,
      "While": 4240,
      "Ġpharm": 4241,
      "Ġmerely": 4242,
      "otal": 4243,
      "Ġcandid": 4244,
      "Ġalone": 4245,
      "arant": 4246,
      "Ġrecognizing": 4247,
      "Ġrow": 4248,
      "Ġsports": 4249,
      "Ġexperiment": 4250,
      "aceu": 4251,
      "',": 4252,
      "Ġbook": 4253,
      "Ġrestric": 4254,
      "ament": 4255,
      "Ġtechnique": 4256,
      "Ġfamil": 4257,
      "Ġexercise": 4258,
      "//": 4259,
      "ta": 4260,
      "ĠDon": 4261,
      "Ġactual": 4262,
      "Ġprove": 4263,
      "Ġcombining": 4264,
      "Ġtemperature": 4265,
      "Des": 4266,
      "Ġhyp": 4267,
      "Ġtut": 4268,
      "Ġbrought": 4269,
      "ĠHealth": 4270,
      "Ġsocietal": 4271,
      "Ġschol": 4272,
      "Ġdesigns": 4273,
      "Ġstudent": 4274,
      "}{\\": 4275,
      "Ġattemp": 4276,
      "log": 4277,
      "Ġundersc": 4278,
      "titude": 4279,
      "Ġfunctionality": 4280,
      "Ġpracticing": 4281,
      "oved": 4282,
      "Ġefficiently": 4283,
      "Ġwhose": 4284,
      "Ġâī": 4285,
      "Ġbecoming": 4286,
      "ections": 4287,
      "iven": 4288,
      "Ġrepresenting": 4289,
      "ĠAll": 4290,
      "ommod": 4291,
      "aks": 4292,
      "Ġwis": 4293,
      "Ġsource": 4294,
      "Ġtac": 4295,
      "Ġencourages": 4296,
      "Here": 4297,
      "Ġlaws": 4298,
      "Ġholds": 4299,
      "Ġtour": 4300,
      "ky": 4301,
      "Ġdirection": 4302,
      "rel": 4303,
      "Ġprimarily": 4304,
      "Ġscal": 4305,
      "bre": 4306,
      "Ġshows": 4307,
      "Ġpurpose": 4308,
      "Ġstyles": 4309,
      "âĪĴ": 4310,
      "aches": 4311,
      "}(": 4312,
      "Ġresistance": 4313,
      "Ġcomponent": 4314,
      "ensity": 4315,
      "Ġcentral": 4316,
      "iding": 4317,
      "Ġincludes": 4318,
      "Ġleaders": 4319,
      "fulness": 4320,
      "Ġmaintenance": 4321,
      "Ġinternal": 4322,
      "Ġhot": 4323,
      "Ġcells": 4324,
      "ban": 4325,
      "Ġspiritual": 4326,
      "Ġtechnological": 4327,
      "Ġroots": 4328,
      "Ġmachine": 4329,
      "Ġreading": 4330,
      "Ġjus": 4331,
      "inated": 4332,
      "Ġtechnical": 4333,
      "ville": 4334,
      "Ġintellig": 4335,
      "Ġprocedures": 4336,
      "Ġsubstanti": 4337,
      "eel": 4338,
      "Ġthird": 4339,
      "Ġafford": 4340,
      "Ġscr": 4341,
      "Ġtesting": 4342,
      "Ġtend": 4343,
      "Ġdefine": 4344,
      "word": 4345,
      "Ġbust": 4346,
      "Ġconstraints": 4347,
      "Ġsix": 4348,
      "Ġenhanced": 4349,
      "Ġmonths": 4350,
      "Ġalloc": 4351,
      "Ġconnecting": 4352,
      "ĠWell": 4353,
      "Ġ\\(": 4354,
      "Ġexplained": 4355,
      "Ġlimitations": 4356,
      "ĠCal": 4357,
      "Ġfast": 4358,
      "anges": 4359,
      "Ġexcep": 4360,
      "Ġpersist": 4361,
      "Ġgoes": 4362,
      "Ġcompati": 4363,
      "ĠCase": 4364,
      "Ġmicro": 4365,
      "Ġconsiderations": 4366,
      "set": 4367,
      "Ġevolving": 4368,
      "ĠEurop": 4369,
      "amiliar": 4370,
      "Ġhom": 4371,
      "Ġquite": 4372,
      "ister": 4373,
      "Ġlonger": 4374,
      "rup": 4375,
      "esis": 4376,
      "Ġoption": 4377,
      "Ġchec": 4378,
      "ĠDuring": 4379,
      "hand": 4380,
      "ĠBoth": 4381,
      "ads": 4382,
      "ĠSm": 4383,
      "Ġparticipants": 4384,
      "Ġinvesting": 4385,
      "Ġsymbol": 4386,
      "Moreover": 4387,
      "que": 4388,
      "Ġtalent": 4389,
      "Ġpractical": 4390,
      "-\\": 4391,
      "Ġutilizing": 4392,
      "Ġachieving": 4393,
      "Ġminimizing": 4394,
      "acies": 4395,
      "Ġpan": 4396,
      "une": 4397,
      "dle": 4398,
      "Ġcontributes": 4399,
      "Ġword": 4400,
      "Ġobst": 4401,
      "Ġminutes": 4402,
      "Ġeasily": 4403,
      "Ġdiss": 4404,
      "Ġsuccessfully": 4405,
      "Ġstumbled": 4406,
      "Ġstudying": 4407,
      "Ġconfig": 4408,
      "aching": 4409,
      "Ġspent": 4410,
      "eds": 4411,
      "Ġdecre": 4412,
      "Ġbarri": 4413,
      "Ġversati": 4414,
      "Ġplayed": 4415,
      "Ġmitig": 4416,
      "iber": 4417,
      "Ġsustainability": 4418,
      "Ġfunctional": 4419,
      "Ġmyself": 4420,
      "igen": 4421,
      "Ġcompetition": 4422,
      "Ġdemands": 4423,
      "exts": 4424,
      "Ġwon": 4425,
      "ĠMar": 4426,
      "Ġaccuracy": 4427,
      "ĠSystem": 4428,
      "Ġdetermining": 4429,
      "ket": 4430,
      "Ġmeeting": 4431,
      "Ġfaith": 4432,
      "ĠQu": 4433,
      "Ġassign": 4434,
      "Ġcapital": 4435,
      "Ġaverage": 4436,
      "Ġsaw": 4437,
      "Ġconsistency": 4438,
      "Ġnarratives": 4439,
      "tices": 4440,
      "Ġhighlight": 4441,
      "Ġtoy": 4442,
      "Ġperforming": 4443,
      "Ġseen": 4444,
      "ĠImagine": 4445,
      "Ġmaximum": 4446,
      "Ġ18": 4447,
      "Ġpositions": 4448,
      "ung": 4449,
      "Ġnotable": 4450,
      "lines": 4451,
      "Ġtransparency": 4452,
      "omin": 4453,
      "Ġelectric": 4454,
      "Ġblue": 4455,
      "Ġmarkets": 4456,
      "oyal": 4457,
      "rastructure": 4458,
      "Ġvac": 4459,
      "Ġlack": 4460,
      "Ġguarant": 4461,
      "verse": 4462,
      "Ġ(-": 4463,
      "Ġincreases": 4464,
      "sum": 4465,
      "Ġvast": 4466,
      "Have": 4467,
      "Ġ:": 4468,
      "Ġbuy": 4469,
      "Ġcoe": 4470,
      "ĠLear": 4471,
      "Ġremaining": 4472,
      "Ġlistening": 4473,
      "Ġgene": 4474,
      "Ġspecialized": 4475,
      "iet": 4476,
      "Ġlooked": 4477,
      "venue": 4478,
      "tition": 4479,
      "Ġtransl": 4480,
      "mathbf": 4481,
      "Ġflu": 4482,
      "Ġjewelry": 4483,
      "whel": 4484,
      "Ġasking": 4485,
      "Ġhighlighting": 4486,
      "Ġlat": 4487,
      "Ġaccommod": 4488,
      "Ġoperation": 4489,
      "Hello": 4490,
      "Ġcombined": 4491,
      "If": 4492,
      "Ġregularly": 4493,
      "Ġillustrate": 4494,
      "theta": 4495,
      "Ġvirtual": 4496,
      "Ġlabor": 4497,
      "Ġcod": 4498,
      "mat": 4499,
      "Ġapplied": 4500,
      "tis": 4501,
      "pi": 4502,
      "Ġproduce": 4503,
      "ĠGen": 4504,
      "Ġexpans": 4505,
      "begin": 4506,
      "Ġfacing": 4507,
      "Ġcou": 4508,
      "Ġcharacteristics": 4509,
      "Ġaffecting": 4510,
      "Ġstatement": 4511,
      "Ġdenotes": 4512,
      "Ġtransportation": 4513,
      "Ġsensitive": 4514,
      "Ġsigns": 4515,
      "ifications": 4516,
      "Ġmessage": 4517,
      "Ġbustling": 4518,
      "asp": 4519,
      "Â°": 4520,
      "faces": 4521,
      "mon": 4522,
      "Ġdevelopers": 4523,
      "itement": 4524,
      "ibly": 4525,
      "osp": 4526,
      "Ġmedic": 4527,
      "cles": 4528,
      "Ġconsistently": 4529,
      "ĠFinally": 4530,
      "},": 4531,
      "ĠRef": 4532,
      "ĠTe": 4533,
      "Ġconve": 4534,
      "Ġcountry": 4535,
      "bon": 4536,
      "Ġimpl": 4537,
      "ogle": 4538,
      "ĠChoose": 4539,
      "Ġnormal": 4540,
      "Ġstaying": 4541,
      "Ġmovements": 4542,
      "Ġdemonstrates": 4543,
      "astering": 4544,
      "oman": 4545,
      "place": 4546,
      "ĠPri": 4547,
      "Ġassum": 4548,
      "olve": 4549,
      "Ġdream": 4550,
      "Ġcaused": 4551,
      "Ġdemonstrated": 4552,
      "ĠImplement": 4553,
      "Ġfear": 4554,
      "Ġcapacity": 4555,
      "Pro": 4556,
      "Ġobject": 4557,
      "ocial": 4558,
      "Ġrecommend": 4559,
      "Ġtask": 4560,
      "tt": 4561,
      "Ġrunning": 4562,
      "nesses": 4563,
      "acement": 4564,
      "Ġbehaviors": 4565,
      "Ġarchitect": 4566,
      "Ġincred": 4567,
      "Ġspark": 4568,
      "Ġencourage": 4569,
      "Ġuncertain": 4570,
      "ray": 4571,
      "ĠExamples": 4572,
      "Ġprocessing": 4573,
      "aceutical": 4574,
      "ĠGu": 4575,
      "Ġwisdom": 4576,
      "Ġselection": 4577,
      "Ġclin": 4578,
      "ded": 4579,
      "Ġembark": 4580,
      "ĠAvoid": 4581,
      "Ġlikely": 4582,
      "oints": 4583,
      "ticul": 4584,
      "Ġdisplay": 4585,
      "ok": 4586,
      "Ġrot": 4587,
      "iring": 4588,
      "Ġunw": 4589,
      "Ġtips": 4590,
      "Ġpolitics": 4591,
      "Ġanimals": 4592,
      "Ġfamilies": 4593,
      "ĠTimmy": 4594,
      "infty": 4595,
      "ners": 4596,
      "Ġwritten": 4597,
      "Ġexcitement": 4598,
      "Ġinfrastructure": 4599,
      "Ġmonitoring": 4600,
      "Ġprime": 4601,
      "Ġwait": 4602,
      "Ġintegrity": 4603,
      "ipping": 4604,
      "olute": 4605,
      "mosph": 4606,
      "Ġmotion": 4607,
      "Ġappeal": 4608,
      "Ġcitiz": 4609,
      "Ġdispar": 4610,
      "Ġencouraging": 4611,
      "Ġ\\*": 4612,
      "known": 4613,
      "Ġalgorithms": 4614,
      "Ġpen": 4615,
      "Ġconsidered": 4616,
      "Ġfrequently": 4617,
      "__": 4618,
      "Ġcomplic": 4619,
      "Ġemail": 4620,
      "Ġofficial": 4621,
      "Ġappearance": 4622,
      "ĠStudy": 4623,
      "Ġdevice": 4624,
      "ĠHist": 4625,
      "Ġdepend": 4626,
      "Ġranging": 4627,
      "ĠDec": 4628,
      "order": 4629,
      "ĠAnalysis": 4630,
      "Ġcharg": 4631,
      "}^": 4632,
      "Ġep": 4633,
      "ĠUltimately": 4634,
      "Ġconsumer": 4635,
      "ĠPersonal": 4636,
      "Ġstatus": 4637,
      "Ġtutorial": 4638,
      "Ġassistance": 4639,
      "Ġgold": 4640,
      "Ġadminist": 4641,
      "Ġchance": 4642,
      "Ġdry": 4643,
      "Ġcarry": 4644,
      "icians": 4645,
      "Ġfirm": 4646,
      "lecting": 4647,
      "Ġvolume": 4648,
      "Ġcredit": 4649,
      "Ġpick": 4650,
      "Ġcreates": 4651,
      "Ġmist": 4652,
      "After": 4653,
      "Ġproviders": 4654,
      "Ġimpacts": 4655,
      "Ġdefinition": 4656,
      "Ġprioritize": 4657,
      "Ġpuzz": 4658,
      "Ġcrim": 4659,
      "Ġartistic": 4660,
      "Ġtap": 4661,
      "Ġcorner": 4662,
      "edge": 4663,
      "Ġciv": 4664,
      "Ġwaiting": 4665,
      "Ġalle": 4666,
      "================": 4667,
      "Ġvs": 4668,
      "Ġoutput": 4669,
      "Ġstorage": 4670,
      "Ġextensive": 4671,
      "quad": 4672,
      "Ġjoy": 4673,
      "Ġclimate": 4674,
      "Ġresponses": 4675,
      "oll": 4676,
      "Ġinteraction": 4677,
      "Ġstore": 4678,
      "Ġprote": 4679,
      "Ġevaluating": 4680,
      "Ġcompassion": 4681,
      "ged": 4682,
      "Ġtell": 4683,
      "Ġreduces": 4684,
      "Ġfinally": 4685,
      "ference": 4686,
      "Ġbott": 4687,
      "Ġrecognize": 4688,
      "Ġreport": 4689,
      "Ġslightly": 4690,
      "Ġenhances": 4691,
      "ounds": 4692,
      "Ġconfid": 4693,
      "Ġreceive": 4694,
      "Ġvoice": 4695,
      "Ġanyone": 4696,
      "Ġreally": 4697,
      "Ġwhereas": 4698,
      "ading": 4699,
      "ocal": 4700,
      "Ġdepth": 4701,
      "Ġparents": 4702,
      "Ġperiods": 4703,
      "Ġangles": 4704,
      "Ġgenerate": 4705,
      "Ġscienti": 4706,
      "cient": 4707,
      "ĠEstablish": 4708,
      "ĠAf": 4709,
      "Ġcris": 4710,
      "ont": 4711,
      "erv": 4712,
      "Ġment": 4713,
      "Ġnearby": 4714,
      "Ġ\\\\": 4715,
      "pha": 4716,
      "erge": 4717,
      "Ġwit": 4718,
      "Ġstrengths": 4719,
      "Ġlimits": 4720,
      "Ġsubt": 4721,
      "Ġinteger": 4722,
      "Ġcriter": 4723,
      "Ġexamination": 4724,
      "Ġaccurately": 4725,
      "Ġsounds": 4726,
      "xiety": 4727,
      "Ġweather": 4728,
      "Ġdiving": 4729,
      "ĠAI": 4730,
      "Ġinstru": 4731,
      "ĠSee": 4732,
      "Ġwhite": 4733,
      "Ġfuel": 4734,
      "Ġreliable": 4735,
      "Ġrenew": 4736,
      "Ġmeticul": 4737,
      "ĠRel": 4738,
      "ript": 4739,
      "Ġcell": 4740,
      "anks": 4741,
      ".'": 4742,
      "Ġhimself": 4743,
      "Ġaffect": 4744,
      "issions": 4745,
      "Ġwaste": 4746,
      "Ġstaff": 4747,
      "ĠAg": 4748,
      "Ġlink": 4749,
      "Ġprivate": 4750,
      "Ġreaders": 4751,
      "Ġrelax": 4752,
      "anning": 4753,
      "Ġindependent": 4754,
      "Ġsuitable": 4755,
      "uit": 4756,
      "Ġdil": 4757,
      "Ġatmosph": 4758,
      "Ġelev": 4759,
      "Ġacademic": 4760,
      "Ġconcl": 4761,
      "Ġrecords": 4762,
      "Ġfeat": 4763,
      "Ġexchange": 4764,
      "Ġlate": 4765,
      "Ġindustries": 4766,
      "ĠPres": 4767,
      "Ġcontributions": 4768,
      "Ġwonder": 4769,
      "ĠDevelopment": 4770,
      "Ġvarying": 4771,
      "Ġswe": 4772,
      "Ġseparate": 4773,
      "friend": 4774,
      "Ġupdates": 4775,
      "mission": 4776,
      "Ġunity": 4777,
      "Ġhighly": 4778,
      "Ġlik": 4779,
      "Ġagreed": 4780,
      "Ġadvice": 4781,
      "Ġcapture": 4782,
      "Ġconnect": 4783,
      "roup": 4784,
      "Ġtherapy": 4785,
      "Ġeventually": 4786,
      "Ġenrich": 4787,
      "Ġhyd": 4788,
      "Ġsubstantial": 4789,
      "Ġdomain": 4790,
      "Ġready": 4791,
      "Ġtrade": 4792,
      "Ġcoin": 4793,
      "ĠAnaly": 4794,
      "ĠCent": 4795,
      "Ġsleep": 4796,
      "Ġdemonstrating": 4797,
      "Ġsympt": 4798,
      "Ġalternatives": 4799,
      "Ġincome": 4800,
      "Ġdispl": 4801,
      "Ġotherwise": 4802,
      "Ġprepared": 4803,
      "Ġtransfer": 4804,
      "Ġconsult": 4805,
      "Ġsurprise": 4806,
      "cip": 4807,
      "elcome": 4808,
      "Ġgently": 4809,
      "rief": 4810,
      "Ġcooking": 4811,
      "acles": 4812,
      "ĠConclusion": 4813,
      "Ġoverwhel": 4814,
      "Ġequival": 4815,
      "Ġenthusiasts": 4816,
      "Ġcultures": 4817,
      "Ġmessages": 4818,
      "Ġadvantage": 4819,
      "asons": 4820,
      "Ġdetermination": 4821,
      "Ġblood": 4822,
      "Ġhappened": 4823,
      "Example": 4824,
      "Ġmanaged": 4825,
      "'.": 4826,
      "Ġwent": 4827,
      "Ġgender": 4828,
      "Ġreality": 4829,
      "Ġerrors": 4830,
      "ĠProf": 4831,
      "ĠMeanwhile": 4832,
      "ĠUnited": 4833,
      "ĠPower": 4834,
      "Ġexpressed": 4835,
      "Ġmob": 4836,
      "Ġcook": 4837,
      "atically": 4838,
      "Ġdimensions": 4839,
      "Ġemployees": 4840,
      "Ġelim": 4841,
      "room": 4842,
      "Ġlasting": 4843,
      "Ġspot": 4844,
      "rug": 4845,
      "ĠTyp": 4846,
      "Ġhappens": 4847,
      "Ġbooks": 4848,
      "Ġaims": 4849,
      "ressing": 4850,
      "Ġstands": 4851,
      "Ġinsight": 4852,
      "iled": 4853,
      "rices": 4854,
      "Ġmanufactur": 4855,
      "anch": 4856,
      "Ġexplicit": 4857,
      "Ġthing": 4858,
      "Ġdiscovery": 4859,
      "ires": 4860,
      "ĠSk": 4861,
      "Ġcompelling": 4862,
      "Ġcaptiv": 4863,
      "ĠPractice": 4864,
      "mar": 4865,
      "Ġinstances": 4866,
      "Ġconstruction": 4867,
      "Ġwebsites": 4868,
      "Ġanticip": 4869,
      "ums": 4870,
      "ĠEduc": 4871,
      "poses": 4872,
      "Ġcountries": 4873,
      "Ġanything": 4874,
      "Ġimmediately": 4875,
      "ĠGoogle": 4876,
      "Ġexercises": 4877,
      "ĠFin": 4878,
      "Ġask": 4879,
      "Ġregional": 4880,
      "Ġlever": 4881,
      "Ġroutine": 4882,
      "Ġlost": 4883,
      "Ġattend": 4884,
      "race": 4885,
      "lor": 4886,
      "ĠStrategies": 4887,
      "uting": 4888,
      "Ġsubsequent": 4889,
      "Ġderivative": 4890,
      "Ġmil": 4891,
      "Ġserving": 4892,
      "Ġdevelopments": 4893,
      "orders": 4894,
      "Ġpredic": 4895,
      "raw": 4896,
      "Ġconsumption": 4897,
      "Ġcomfortable": 4898,
      "book": 4899,
      "ĠTogether": 4900,
      "Ġremark": 4901,
      "Why": 4902,
      "ĠExp": 4903,
      "uddenly": 4904,
      "rene": 4905,
      "Î¸": 4906,
      "Ġreaching": 4907,
      "eted": 4908,
      "ĠMaintain": 4909,
      "mental": 4910,
      "Ġchapter": 4911,
      "ĠBal": 4912,
      "Ġchances": 4913,
      "Ġlayers": 4914,
      "Ġbreaking": 4915,
      "Ġprogramming": 4916,
      "rist": 4917,
      "Ġax": 4918,
      "ĠAdv": 4919,
      "Ġexcellent": 4920,
      "ectiveness": 4921,
      "Ġengineering": 4922,
      "Ġbeliefs": 4923,
      "Ġjustice": 4924,
      "rees": 4925,
      "Ġadaptability": 4926,
      "Ġinequality": 4927,
      "Ġcalculations": 4928,
      "Ġtiny": 4929,
      "Ġcollege": 4930,
      "ĠImp": 4931,
      "elihood": 4932,
      "ĠProg": 4933,
      "Ġhear": 4934,
      "Ġexcessive": 4935,
      "Re": 4936,
      "ĠWorld": 4937,
      "Ġthoughtful": 4938,
      "eters": 4939,
      "Ġpreviously": 4940,
      "Ġfulf": 4941,
      "lean": 4942,
      "Ġprices": 4943,
      "unning": 4944,
      "Ġreligious": 4945,
      "ompl": 4946,
      "Ġ202": 4947,
      "Ġartist": 4948,
      "backs": 4949,
      "Ġheavy": 4950,
      "App": 4951,
      "Ġloyal": 4952,
      "Ġdark": 4953,
      "Ġdistribut": 4954,
      "Ġallowed": 4955,
      "Ġproductivity": 4956,
      "Ġturns": 4957,
      "Ġprem": 4958,
      "Ġscholars": 4959,
      "Ġbrid": 4960,
      "Ġentertain": 4961,
      "ĠImport": 4962,
      "Ġimages": 4963,
      "Ġsite": 4964,
      "Ġunn": 4965,
      "Ġdrive": 4966,
      "imal": 4967,
      "ools": 4968,
      "}$.": 4969,
      "Ġgot": 4970,
      "Ġsmart": 4971,
      "Ġopin": 4972,
      "Ġdisapp": 4973,
      "Ġanxiety": 4974,
      "son": 4975,
      "Ġtriangle": 4976,
      "Ġplants": 4977,
      "Ġintelligence": 4978,
      "Ġprompt": 4979,
      "Ġath": 4980,
      "Ġdiagnos": 4981,
      "Ġmission": 4982,
      "Ġoutl": 4983,
      "Ġsummary": 4984,
      "Ġvel": 4985,
      "rical": 4986,
      "Ġshift": 4987,
      "Ġpurposes": 4988,
      "Ġqualities": 4989,
      "Ġpresents": 4990,
      "ĠInteg": 4991,
      "Ġimmers": 4992,
      "Ġbudget": 4993,
      "ĠMus": 4994,
      "Ġinsurance": 4995,
      "ĠNon": 4996,
      "Ġtransc": 4997,
      "Ġcompar": 4998,
      "Ġbarriers": 4999,
      "ara": 5000,
      "Ġarise": 5001,
      "formation": 5002,
      "Ġweeks": 5003,
      "Ġrelative": 5004,
      "ĠData": 5005,
      "Ġinspiration": 5006,
      "Ġenter": 5007,
      "ellect": 5008,
      "Ġcontinues": 5009,
      "ĠManagement": 5010,
      "Ġic": 5011,
      "Ġcoll": 5012,
      "eign": 5013,
      "Ġsubstit": 5014,
      "Ġvision": 5015,
      "inates": 5016,
      "Ġregions": 5017,
      "Ġpor": 5018,
      "gar": 5019,
      "Ġcitizens": 5020,
      "etary": 5021,
      "Ġconcent": 5022,
      "Ġisol": 5023,
      "Ġcontroll": 5024,
      "Ġscreen": 5025,
      "off": 5026,
      "Ġuses": 5027,
      "Ġrecognition": 5028,
      "ai": 5029,
      "ĠChar": 5030,
      "What": 5031,
      "Ġhers": 5032,
      "Ġwise": 5033,
      "inks": 5034,
      "ĠSupp": 5035,
      "Ġimplementation": 5036,
      "Ġsoph": 5037,
      "inent": 5038,
      "})": 5039,
      "Ġchemical": 5040,
      "bal": 5041,
      "Ġ...": 5042,
      "ĠProv": 5043,
      "Ġbir": 5044,
      "ecessary": 5045,
      "Ġcoun": 5046,
      "ĠNever": 5047,
      "Ġregulatory": 5048,
      "AAAA": 5049,
      "+\\": 5050,
      "Ġdog": 5051,
      "Ġmemory": 5052,
      "Ġincorporate": 5053,
      "Ġhabits": 5054,
      "antly": 5055,
      "Ġimprovements": 5056,
      "Ġdemoc": 5057,
      "Ġvectors": 5058,
      "Ġnational": 5059,
      "Ġrecall": 5060,
      "Ġlayer": 5061,
      "Ġlikelihood": 5062,
      "Ġtraffic": 5063,
      "Ġpopulation": 5064,
      "Ġpositively": 5065,
      "Ġevaluate": 5066,
      "Ġadh": 5067,
      "Ġphil": 5068,
      "Ġfire": 5069,
      "Ġrh": 5070,
      "cosystem": 5071,
      "ĠThom": 5072,
      "ĠGiven": 5073,
      "sp": 5074,
      "Ġarticle": 5075,
      "Ġcogn": 5076,
      "Ġbrings": 5077,
      "Ġsubject": 5078,
      "ĠBusiness": 5079,
      "ert": 5080,
      "Ġattribut": 5081,
      "Ġcraft": 5082,
      "Ġstrict": 5083,
      "Ġtransition": 5084,
      "Ġrepresented": 5085,
      "Ġtheore": 5086,
      "ĠUS": 5087,
      "any": 5088,
      "Ġvent": 5089,
      "Ġsac": 5090,
      "Ġexpected": 5091,
      "Ġemploying": 5092,
      "Ġbonds": 5093,
      "Ġcampaigns": 5094,
      "ĠJamie": 5095,
      "Ġaccompl": 5096,
      "Ġcriteria": 5097,
      "Ġoperating": 5098,
      "Ġwalk": 5099,
      "reprene": 5100,
      "idents": 5101,
      "Ġmemories": 5102,
      "Ġalter": 5103,
      "Ġacknowledging": 5104,
      "Ġfootball": 5105,
      "asm": 5106,
      "ĠFollow": 5107,
      "Ġfilm": 5108,
      "Ġteaching": 5109,
      "itivity": 5110,
      "ief": 5111,
      "Ġembrace": 5112,
      "iers": 5113,
      "uff": 5114,
      "Ġoppos": 5115,
      "ĠConf": 5116,
      "Ġcolumn": 5117,
      "ison": 5118,
      "Ġrecently": 5119,
      "ĠFun": 5120,
      "Ġharness": 5121,
      "Ġplant": 5122,
      "Ġequipped": 5123,
      "Ġmarg": 5124,
      "Ġperhaps": 5125,
      "Ġnegoti": 5126,
      "Ġthreats": 5127,
      "Ġbodies": 5128,
      "orrow": 5129,
      "Ġminimal": 5130,
      "Ġscenario": 5131,
      "Ġintroduced": 5132,
      "rete": 5133,
      "Ġsuggested": 5134,
      "rin": 5135,
      "Ġsophistic": 5136,
      "Ġfaster": 5137,
      "Ġfine": 5138,
      "Ġconfigur": 5139,
      "Ġthanks": 5140,
      "Ġforming": 5141,
      "Ġadequ": 5142,
      "Ġrely": 5143,
      "ĠAlways": 5144,
      "Ġpopulations": 5145,
      "Ġheavily": 5146,
      "Ġaccept": 5147,
      "Ġmemor": 5148,
      "Ġexceptional": 5149,
      "Ġopening": 5150,
      "ublish": 5151,
      "Ġreceived": 5152,
      "Ġtraditions": 5153,
      "Ġaren": 5154,
      "Ġgoverning": 5155,
      "ĠPerform": 5156,
      "Ġderived": 5157,
      "Ġroc": 5158,
      "Ġcorpor": 5159,
      "ĠIdentify": 5160,
      "Ġnorms": 5161,
      "aly": 5162,
      "ĠOut": 5163,
      "ĠTime": 5164,
      "Ġche": 5165,
      "box": 5166,
      "Ġadds": 5167,
      "Ġneighbor": 5168,
      "Ġcrow": 5169,
      "nected": 5170,
      "Ġdisease": 5171,
      "Ġtaught": 5172,
      "Ġfeaturing": 5173,
      "Ġintricacies": 5174,
      "Ġhous": 5175,
      "cel": 5176,
      "unately": 5177,
      "urch": 5178,
      "Ġemployed": 5179,
      "Ġaf": 5180,
      "Ġreflecting": 5181,
      "Ġecosystem": 5182,
      "telling": 5183,
      "Ġliterature": 5184,
      "Ġmolec": 5185,
      "'(": 5186,
      "Ġinner": 5187,
      "Ġpric": 5188,
      "ivity": 5189,
      "Ġmaximize": 5190,
      "vi": 5191,
      "Ġselect": 5192,
      "Ġsupply": 5193,
      "Ġmastering": 5194,
      "Ġworked": 5195,
      "Ġremarkable": 5196,
      "inter": 5197,
      "lessly": 5198,
      "Ġcomplicated": 5199,
      "used": 5200,
      "Ġlandscapes": 5201,
      "uct": 5202,
      "wr": 5203,
      "att": 5204,
      "Ġdivide": 5205,
      "utive": 5206,
      "Ġpartnerships": 5207,
      "Ġancient": 5208,
      "ĠCommon": 5209,
      "Ġling": 5210,
      "Ġemphasizing": 5211,
      "Ġheld": 5212,
      "Ġpaths": 5213,
      "ĠEven": 5214,
      "Ġsat": 5215,
      "Ġquad": 5216,
      "Ġintroduce": 5217,
      "ĠCollabor": 5218,
      "ĠOverview": 5219,
      "Ġmathematicians": 5220,
      "ĠMath": 5221,
      "onents": 5222,
      "ĠLook": 5223,
      "Despite": 5224,
      "Ġdeveloped": 5225,
      "Ġversion": 5226,
      "Ġspecies": 5227,
      "Ġstic": 5228,
      "Ġmagic": 5229,
      "reme": 5230,
      "Ġcombinations": 5231,
      "ticism": 5232,
      "Ġrelease": 5233,
      "Ġcher": 5234,
      "Ġintriguing": 5235,
      "Ġbit": 5236,
      "Ġpiv": 5237,
      "Ġwild": 5238,
      "Ġtackle": 5239,
      ");": 5240,
      "egu": 5241,
      "Ġuns": 5242,
      "Ġgar": 5243,
      "Ġleave": 5244,
      "Ġfile": 5245,
      "Ġplot": 5246,
      "ĠProper": 5247,
      "Ġcoop": 5248,
      "Ġhit": 5249,
      "Ġ15": 5250,
      "Ġfigures": 5251,
      "inition": 5252,
      "unting": 5253,
      "ĠIntern": 5254,
      "Ġtree": 5255,
      "board": 5256,
      "Ġsunny": 5257,
      "Ġobstacles": 5258,
      "izations": 5259,
      "Ġerror": 5260,
      "Ġhes": 5261,
      "Ġdelicate": 5262,
      "Ġsymptoms": 5263,
      "ams": 5264,
      "Ġhelped": 5265,
      "Ġcrypt": 5266,
      "plying": 5267,
      "Ġcrafting": 5268,
      "asion": 5269,
      "Ġherself": 5270,
      "ĠOrgan": 5271,
      "Ġuncover": 5272,
      "Ġcategories": 5273,
      "ĠEqu": 5274,
      "Ġaccessibility": 5275,
      "ĠBuilding": 5276,
      "Ġdu": 5277,
      "Ġspeaking": 5278,
      "Ġutilize": 5279,
      "Ġengaged": 5280,
      "aint": 5281,
      "Ġprop": 5282,
      "Understanding": 5283,
      "acting": 5284,
      "Ġconflicts": 5285,
      "Ġabsolute": 5286,
      "ĠEarth": 5287,
      "Ġsent": 5288,
      ".$$": 5289,
      "Ġsong": 5290,
      "Ġhop": 5291,
      "ĠPe": 5292,
      "Ġcontains": 5293,
      "Ġtopic": 5294,
      "Ġplaces": 5295,
      "Ġtheoretical": 5296,
      "Ġgas": 5297,
      "lig": 5298,
      "Ġlibr": 5299,
      "Ġcomprehension": 5300,
      "Ġpharmaceutical": 5301,
      "apping": 5302,
      "ĠSocial": 5303,
      "ĠAmong": 5304,
      "Ġdiscussed": 5305,
      "ription": 5306,
      "ĠGe": 5307,
      "Ġpairs": 5308,
      "*:": 5309,
      "ĠCare": 5310,
      "Ġdelivering": 5311,
      "udes": 5312,
      "Ġsample": 5313,
      "Ġsymmet": 5314,
      "Ġformed": 5315,
      "aur": 5316,
      "Ġguess": 5317,
      "Ġfans": 5318,
      "Ġlisten": 5319,
      "arian": 5320,
      "Ġproactive": 5321,
      "azing": 5322,
      "ĠSur": 5323,
      "Expl": 5324,
      "Ġgets": 5325,
      "Ġglass": 5326,
      "oli": 5327,
      "Ġinspired": 5328,
      "Ġclient": 5329,
      "}$,": 5330,
      "Ġtwist": 5331,
      "Ġparalle": 5332,
      "Ġcompatibility": 5333,
      ")$,": 5334,
      "Ġsave": 5335,
      "Ġbeloved": 5336,
      "uous": 5337,
      "Ġemerged": 5338,
      "ffee": 5339,
      "Ġinterval": 5340,
      "Ġdesigning": 5341,
      "Ġedge": 5342,
      "Ġserved": 5343,
      "Ġdouble": 5344,
      "ĠReal": 5345,
      "Ġeffectiveness": 5346,
      "Ġcomplement": 5347,
      "ĠAfric": 5348,
      "Ġinvestigation": 5349,
      "mer": 5350,
      "^{-": 5351,
      "Throughout": 5352,
      "solving": 5353,
      "Ġinten": 5354,
      "Ġmyster": 5355,
      "friendly": 5356,
      "Ġunivers": 5357,
      "forcement": 5358,
      "Ġestablishing": 5359,
      "Ġinspire": 5360,
      "Ġlaugh": 5361,
      "ĠInc": 5362,
      "Ġlocated": 5363,
      "Ġcatch": 5364,
      "Ġstring": 5365,
      "urb": 5366,
      "Ġseems": 5367,
      "Ġsuggests": 5368,
      "Ġtaste": 5369,
      "Ġveloc": 5370,
      "step": 5371,
      "You": 5372,
      "Ġthr": 5373,
      "Ġexplored": 5374,
      "Ġapproached": 5375,
      "oles": 5376,
      "Ġgrand": 5377,
      "Ġintellect": 5378,
      "etit": 5379,
      "Ġaffected": 5380,
      "Ġtow": 5381,
      "emb": 5382,
      "Ġsex": 5383,
      "Ġmetal": 5384,
      "Ġfarm": 5385,
      "Ġintervention": 5386,
      "Ġrect": 5387,
      "Ġsections": 5388,
      "Ġfiles": 5389,
      "Ġtactics": 5390,
      "Ġkids": 5391,
      "gr": 5392,
      "Ġdegree": 5393,
      "Ġlocations": 5394,
      "ana": 5395,
      "iling": 5396,
      "racting": 5397,
      "Ġstre": 5398,
      "EO": 5399,
      "Ġdatas": 5400,
      "eath": 5401,
      "Ġlifest": 5402,
      "ception": 5403,
      "itage": 5404,
      "point": 5405,
      "Ġlooks": 5406,
      "Ġalthough": 5407,
      "Ġsizes": 5408,
      "Ġdeli": 5409,
      "$$\\": 5410,
      "Ġnarrative": 5411,
      "ravel": 5412,
      "ĠRegularly": 5413,
      "NA": 5414,
      "There": 5415,
      "pe": 5416,
      "Ġresolution": 5417,
      "Ġpromo": 5418,
      "Ġcrafts": 5419,
      "://": 5420,
      "Ġevolution": 5421,
      "Ġcomputing": 5422,
      "ork": 5423,
      "Ġrapidly": 5424,
      "ĠAb": 5425,
      "ficial": 5426,
      "Ġsafegu": 5427,
      "irect": 5428,
      "ww": 5429,
      "Ġpet": 5430,
      "ĠChrist": 5431,
      "Ġreplied": 5432,
      "Ġempowerment": 5433,
      "ordinary": 5434,
      "Ġdelivery": 5435,
      "uccess": 5436,
      "ulating": 5437,
      "ĠConn": 5438,
      "Ġinterview": 5439,
      "oving": 5440,
      "aid": 5441,
      "Ġabsor": 5442,
      "rial": 5443,
      "Ġrevenue": 5444,
      "Ġtruth": 5445,
      "ĠAccess": 5446,
      "Ġframeworks": 5447,
      "Ġbrain": 5448,
      "uality": 5449,
      "Ġintim": 5450,
      "ĠLily": 5451,
      "Ġveget": 5452,
      "ayer": 5453,
      "Ġrise": 5454,
      "Ġsurv": 5455,
      "Ġ100": 5456,
      "ittle": 5457,
      "ube": 5458,
      "down": 5459,
      "Ġhandle": 5460,
      "Ġurban": 5461,
      "points": 5462,
      "anted": 5463,
      "Ġpassed": 5464,
      "Ġobserv": 5465,
      "Ġworksh": 5466,
      "Ġcleaning": 5467,
      "ĠRed": 5468,
      "Ġentreprene": 5469,
      "Ġpromising": 5470,
      "osoph": 5471,
      "Ġreinfor": 5472,
      "Ġpul": 5473,
      "Ġconventional": 5474,
      "Ġimmediate": 5475,
      "Ġhealing": 5476,
      "Ġobserve": 5477,
      "Ġcentered": 5478,
      "Ġmobile": 5479,
      "Ġsou": 5480,
      "Ġextraordinary": 5481,
      "xy": 5482,
      "Ġimpressive": 5483,
      "Ġchain": 5484,
      "Ġassets": 5485,
      "ley": 5486,
      "Ġblack": 5487,
      "Ġparty": 5488,
      "uro": 5489,
      "Ġprotoc": 5490,
      "Ġcompliance": 5491,
      "Ġperce": 5492,
      "Ġmaybe": 5493,
      "Ġexcited": 5494,
      "ĠVal": 5495,
      "ĠProt": 5496,
      "Ġsurpris": 5497,
      "Ġende": 5498,
      "Ġentities": 5499,
      "Ġunp": 5500,
      "Ġmatrices": 5501,
      "Ġrepe": 5502,
      "Ġremote": 5503,
      "ĠSub": 5504,
      "ĠApplic": 5505,
      "Ġreflection": 5506,
      "Ġscientists": 5507,
      "found": 5508,
      "Ġschools": 5509,
      "iform": 5510,
      "Em": 5511,
      "Ġwear": 5512,
      "Ġstages": 5513,
      "urally": 5514,
      "Ġatmosphere": 5515,
      "Ġactively": 5516,
      "Ġdrug": 5517,
      "Ġraised": 5518,
      "Ġcommunicate": 5519,
      "ults": 5520,
      ",'": 5521,
      "ĠImportance": 5522,
      "Ġlabel": 5523,
      "usivity": 5524,
      "Ġbol": 5525,
      "ographic": 5526,
      "ĠCO": 5527,
      "Ġforth": 5528,
      "Ġexperts": 5529,
      "Ġcompetit": 5530,
      "Ġfab": 5531,
      "Ġoccurs": 5532,
      "Ġpicture": 5533,
      "Add": 5534,
      "asure": 5535,
      "Ġleveraging": 5536,
      "ĠWar": 5537,
      "Ġbelieve": 5538,
      "Ġ30": 5539,
      "Ġmetrics": 5540,
      "ĠLeg": 5541,
      "ĠRole": 5542,
      "urturing": 5543,
      "Ġmultiplication": 5544,
      "nings": 5545,
      "Ġaspiring": 5546,
      "herence": 5547,
      "Ġconsists": 5548,
      "da": 5549,
      "Ġconflict": 5550,
      "Ġstanding": 5551,
      "Ġformal": 5552,
      "Ġimplies": 5553,
      "tor": 5554,
      "Ġwood": 5555,
      "Ġcombination": 5556,
      "Ġaccessible": 5557,
      "Ġtension": 5558,
      "Ġpropor": 5559,
      "Ġcompet": 5560,
      "alpha": 5561,
      "Ġdegrees": 5562,
      "Ġinfluencing": 5563,
      "Ġratio": 5564,
      "Ġfrequency": 5565,
      "Ġwrite": 5566,
      "Ġlens": 5567,
      "AT": 5568,
      "Al": 5569,
      "}$$": 5570,
      "Ġparticipation": 5571,
      "Ġbeneath": 5572,
      "Ġamounts": 5573,
      "Ġwitness": 5574,
      "Ġsam": 5575,
      "Ġdenomin": 5576,
      "Ġdividing": 5577,
      "Ġresponsibilities": 5578,
      "vr": 5579,
      "Ġoutd": 5580,
      "Ġpractition": 5581,
      "olved": 5582,
      "ĠCreate": 5583,
      "Ġske": 5584,
      "Ġdenoted": 5585,
      "Ġgard": 5586,
      "Ġformat": 5587,
      "ĠNor": 5588,
      "lity": 5589,
      "umber": 5590,
      "Ġperp": 5591,
      "Ġcivil": 5592,
      "Ġintegers": 5593,
      "Is": 5594,
      "Ġshifts": 5595,
      "Ġappears": 5596,
      "pers": 5597,
      "Ġhonest": 5598,
      "ĠAre": 5599,
      "olic": 5600,
      "Ġdetailed": 5601,
      "ĠEvalu": 5602,
      "Ġboost": 5603,
      "yd": 5604,
      "Ġofferings": 5605,
      "angles": 5606,
      "Ġtreatments": 5607,
      "Ġpartners": 5608,
      ":*": 5609,
      "Ġphone": 5610,
      "Ġflavors": 5611,
      "Ġmov": 5612,
      "orph": 5613,
      "ĠDel": 5614,
      "Ġmel": 5615,
      "Ġnothing": 5616,
      "Ġinstructions": 5617,
      "ĠVis": 5618,
      "ĠMarketing": 5619,
      "Ġglance": 5620,
      "Ġpurchasing": 5621,
      "Ġuseful": 5622,
      "Ġforget": 5623,
      "Ġblog": 5624,
      "Ġraw": 5625,
      "rative": 5626,
      "flow": 5627,
      "ried": 5628,
      ".âĢĿ": 5629,
      "na": 5630,
      "oration": 5631,
      "Ġnuances": 5632,
      "Ġpreventing": 5633,
      "Ġcharacterized": 5634,
      "lock": 5635,
      "Ġparamount": 5636,
      "ĠStates": 5637,
      "Ġcauses": 5638,
      "Ġexpenses": 5639,
      "ervation": 5640,
      "Ġfixed": 5641,
      "Ġdish": 5642,
      "airs": 5643,
      "Ġproposed": 5644,
      "ashion": 5645,
      "Ġdetermined": 5646,
      "Ġboard": 5647,
      "ĠCustom": 5648,
      "ĠArt": 5649,
      "Ġmember": 5650,
      "Ġaccountability": 5651,
      "Ġ199": 5652,
      "Ġsem": 5653,
      "Ġdifferenti": 5654,
      "Ġtracking": 5655,
      "Ġfreed": 5656,
      "Ġwaves": 5657,
      "Ġclasses": 5658,
      "Ġscene": 5659,
      "Ġple": 5660,
      "Ġgent": 5661,
      "Ġusually": 5662,
      "Ġobjective": 5663,
      "Ġoutcome": 5664,
      "ĠAmerica": 5665,
      "Ġreputation": 5666,
      "ils": 5667,
      "Ġtransformed": 5668,
      "Ġinfinite": 5669,
      "oe": 5670,
      "Ġcomparing": 5671,
      "Ġbatter": 5672,
      "Ġfinite": 5673,
      "izz": 5674,
      "Ġlesson": 5675,
      "gence": 5676,
      "Ġaccounts": 5677,
      "Ġago": 5678,
      "ĠGl": 5679,
      "Ġprincip": 5680,
      "ensional": 5681,
      "dx": 5682,
      "Ġcards": 5683,
      "Ġvig": 5684,
      "Ġpromotes": 5685,
      "Ġgradually": 5686,
      "anger": 5687,
      "vention": 5688,
      "Ġice": 5689,
      "Ġoptimization": 5690,
      "Ġcognitive": 5691,
      "Ġstorytelling": 5692,
      "Ġdelicious": 5693,
      "Ġexpanding": 5694,
      "idth": 5695,
      "Ġinclusive": 5696,
      "Ġfeet": 5697,
      "Ġmoves": 5698,
      "Ġoptimize": 5699,
      "Ġpredict": 5700,
      "Ġprotecting": 5701,
      "empl": 5702,
      "Ġmoist": 5703,
      "Ġcoffee": 5704,
      "Ġdelight": 5705,
      "Ġgenerating": 5706,
      "och": 5707,
      "Ġcultivate": 5708,
      "Ġrecommendations": 5709,
      "Ġgrasp": 5710,
      "Ġmultiplying": 5711,
      "Ġpricing": 5712,
      "ercial": 5713,
      "osed": 5714,
      "Ġnewly": 5715,
      "urd": 5716,
      "Ġprecision": 5717,
      "Ġfish": 5718,
      "Ġexpert": 5719,
      "ĠFind": 5720,
      "Our": 5721,
      "Ġpowers": 5722,
      "Ġclassic": 5723,
      "connected": 5724,
      "Ġencountered": 5725,
      "Ġdilig": 5726,
      "Ġpoor": 5727,
      "ĠHar": 5728,
      "agues": 5729,
      "Ġliqu": 5730,
      "$:": 5731,
      "Ġsecret": 5732,
      "Ġfacilitating": 5733,
      "Ġexclusive": 5734,
      "Ġample": 5735,
      ")$.": 5736,
      "Ġ#": 5737,
      "Ġsubtle": 5738,
      "Ġpage": 5739,
      "Ġsuppl": 5740,
      "Ġdocuments": 5741,
      "anting": 5742,
      "Ġdepart": 5743,
      "Ġlatest": 5744,
      "Ġknows": 5745,
      "Ġadequate": 5746,
      "Ġdebates": 5747,
      "most": 5748,
      "ĠEvery": 5749,
      "Ġmusical": 5750,
      "Ġunfor": 5751,
      "Ġpublish": 5752,
      "Ġnotes": 5753,
      "Ġ16": 5754,
      "Ġentirely": 5755,
      "athering": 5756,
      "Ġremained": 5757,
      "unte": 5758,
      "working": 5759,
      "Ġstunning": 5760,
      "Ġattach": 5761,
      "ulture": 5762,
      "Ġschem": 5763,
      "Ġeffect": 5764,
      "Ġunderst": 5765,
      "Ġinjury": 5766,
      "nel": 5767,
      "ĠNational": 5768,
      "Ġsurfaces": 5769,
      "Ġgenerated": 5770,
      "rew": 5771,
      "Ġclearly": 5772,
      "Ġturning": 5773,
      "Ġparticipate": 5774,
      "Ġiden": 5775,
      "Ġhorizon": 5776,
      "Ġstret": 5777,
      "ocking": 5778,
      "Ġintersection": 5779,
      "Ġnewfound": 5780,
      "Ġfocuses": 5781,
      "aria": 5782,
      "ĠDefinition": 5783,
      "ĠRo": 5784,
      "puts": 5785,
      "Ġestate": 5786,
      "Ġheritage": 5787,
      "Ġflavor": 5788,
      "Ġparticipating": 5789,
      "Ġperformances": 5790,
      "ĠMany": 5791,
      "ĠDem": 5792,
      "Ġunnecessary": 5793,
      "Ġdescribed": 5794,
      "otyp": 5795,
      "Ġrecovery": 5796,
      "ĠEns": 5797,
      "Ġsevere": 5798,
      "Ġtheorem": 5799,
      "Ġcredibility": 5800,
      "oly": 5801,
      "ĠInv": 5802,
      "opping": 5803,
      "agers": 5804,
      "Ġcommunic": 5805,
      "yl": 5806,
      "Ġhelpful": 5807,
      "Ġvill": 5808,
      "Ġorganizational": 5809,
      "ĠFact": 5810,
      "Ġmeals": 5811,
      "Ġalgebraic": 5812,
      "umes": 5813,
      "ĠEncourage": 5814,
      "Ġdepends": 5815,
      "Ġcalculated": 5816,
      "Ġroad": 5817,
      "Ġavoiding": 5818,
      "Ġsequences": 5819,
      "struc": 5820,
      "Ġpreparation": 5821,
      "ttps": 5822,
      "ferences": 5823,
      "Ġpushing": 5824,
      "Ġphilosoph": 5825,
      "ĠLaw": 5826,
      "Ġadver": 5827,
      "Ġthoughtfully": 5828,
      "Ġperfectly": 5829,
      "Welcome": 5830,
      "Ġmemorable": 5831,
      "Ġmer": 5832,
      "Ġstatements": 5833,
      "Ġadjustments": 5834,
      "Ġarrangements": 5835,
      "ĠTechniques": 5836,
      "Ġcompute": 5837,
      "ented": 5838,
      "Ġsought": 5839,
      "Ġmir": 5840,
      "Ġsites": 5841,
      "vision": 5842,
      "Ġband": 5843,
      "Ġvehicle": 5844,
      "ague": 5845,
      "Ġevaluation": 5846,
      "ĠRecogn": 5847,
      "vance": 5848,
      "Ġsuffer": 5849,
      "Ġthoroughly": 5850,
      "Ġdishes": 5851,
      "inder": 5852,
      "ĠCap": 5853,
      "fit": 5854,
      "Ġnurturing": 5855,
      "Ġscale": 5856,
      "Ġintellectual": 5857,
      "Ġfront": 5858,
      "Ġreactions": 5859,
      "Ġextended": 5860,
      "Ġtrip": 5861,
      "ederal": 5862,
      "Ġgrav": 5863,
      "Ġinteract": 5864,
      "ĠMin": 5865,
      "Ġovers": 5866,
      "Ġhesit": 5867,
      "Cons": 5868,
      "Ġcharge": 5869,
      "stract": 5870,
      "ales": 5871,
      "Ġperm": 5872,
      "Ġreached": 5873,
      "ĠSol": 5874,
      "Ġvisitors": 5875,
      "umptions": 5876,
      "Ġpractitioners": 5877,
      "Ġanimal": 5878,
      "Ġpivotal": 5879,
      "chain": 5880,
      "Ġstrengthen": 5881,
      "Ġcandidates": 5882,
      "Ġcorrectly": 5883,
      "top": 5884,
      "Ġclosed": 5885,
      "ĠAppro": 5886,
      "matrix": 5887,
      "Ġgeneration": 5888,
      "Ġselling": 5889,
      "Ġwealth": 5890,
      "Ġaccomplish": 5891,
      "ĠApplying": 5892,
      "ĠAtt": 5893,
      "icy": 5894,
      "ched": 5895,
      "Ġalignment": 5896,
      "Ġrelying": 5897,
      "ĠCur": 5898,
      "Ġreminder": 5899,
      "vals": 5900,
      "Ġloyalty": 5901,
      "irms": 5902,
      "Ġemotion": 5903,
      "pson": 5904,
      "\\)": 5905,
      "ilitary": 5906,
      "Ġpressing": 5907,
      "ĠImpact": 5908,
      "Ġvelocity": 5909,
      "Ġapplicable": 5910,
      "Ġharmon": 5911,
      "Ġcarbon": 5912,
      "Ġprofici": 5913,
      "Ġnodded": 5914,
      "edding": 5915,
      "Ġvariations": 5916,
      "Ġessence": 5917,
      "ader": 5918,
      "Ġexplo": 5919,
      "iveness": 5920,
      "Ġcollect": 5921,
      "Ġintu": 5922,
      "Ġrational": 5923,
      "ĠFamiliar": 5924,
      "Ġsimplify": 5925,
      "Ġforeign": 5926,
      "Ġacts": 5927,
      "ror": 5928,
      "Ġfunds": 5929,
      "Ġorganized": 5930,
      "Ġholding": 5931,
      "Ġstruggle": 5932,
      "Ġconv": 5933,
      "Ġtit": 5934,
      "Ġboasts": 5935,
      "metic": 5936,
      "Ġequally": 5937,
      "Ġgaming": 5938,
      "Ġgrapp": 5939,
      "spec": 5940,
      "ĠNet": 5941,
      "Ġdiam": 5942,
      "Ġfacilities": 5943,
      "rain": 5944,
      "ĠTwo": 5945,
      "Ġappealing": 5946,
      "`,": 5947,
      "free": 5948,
      "Ġbottom": 5949,
      "Ġcentury": 5950,
      "theless": 5951,
      "$)": 5952,
      "Ġadversity": 5953,
      "Ġminor": 5954,
      "*(": 5955,
      "Ġaid": 5956,
      "owned": 5957,
      "ken": 5958,
      "till": 5959,
      "ĠSw": 5960,
      "Ġdead": 5961,
      "Ġconstructive": 5962,
      "Ġshowing": 5963,
      "Ġslope": 5964,
      "Ġagg": 5965,
      "Ġtests": 5966,
      "Ġdrawn": 5967,
      "Ġformation": 5968,
      "Ġstrive": 5969,
      "Ġstead": 5970,
      "Ġprotocols": 5971,
      "rant": 5972,
      "Ġcoverage": 5973,
      "Ġboxes": 5974,
      "Ġcloud": 5975,
      "Ġadopting": 5976,
      "Ġpersever": 5977,
      "Ġedges": 5978,
      "apan": 5979,
      "Ġbrush": 5980,
      "Ġbalanced": 5981,
      "enders": 5982,
      "utic": 5983,
      "ĠEmp": 5984,
      "Ġrare": 5985,
      "ĠChall": 5986,
      "Ġobserved": 5987,
      "Ġuniform": 5988,
      "Ġsell": 5989,
      "Ġexistence": 5990,
      "Ġhob": 5991,
      "ĠEducation": 5992,
      "Ġsusp": 5993,
      "Ġargue": 5994,
      "Ġmotivation": 5995,
      "Ġincredible": 5996,
      "ĠPat": 5997,
      "Ġexecution": 5998,
      "Ġexhibit": 5999,
      "Ġannoun": 6000,
      "ĠDep": 6001,
      "tains": 6002,
      "Ġphysics": 6003,
      "Ġassumptions": 6004,
      "Ġleaves": 6005,
      "raf": 6006,
      "ĠSecond": 6007,
      ")]": 6008,
      "ctive": 6009,
      "Ġsymbols": 6010,
      "ĠForm": 6011,
      "pons": 6012,
      "partial": 6013,
      "ĠBas": 6014,
      "Ġlux": 6015,
      "Ġlic": 6016,
      "Ġoverlook": 6017,
      "Ġagencies": 6018,
      "Ġanswers": 6019,
      "Ġfing": 6020,
      "Ġlanguages": 6021,
      "ching": 6022,
      "Ġcharm": 6023,
      "Ġparent": 6024,
      "Ġmarbles": 6025,
      "uits": 6026,
      "Ġcancer": 6027,
      "Ġbrands": 6028,
      "Ġexpansion": 6029,
      "AR": 6030,
      "Ġdone": 6031,
      "Ġlaunch": 6032,
      "Ġuncertainty": 6033,
      "Ġmanif": 6034,
      "Ġeleg": 6035,
      "Ġneighborhood": 6036,
      "ocurr": 6037,
      "ĠSuccess": 6038,
      "Ġbed": 6039,
      "Ġhosp": 6040,
      "Ġgoods": 6041,
      "Ġprepare": 6042,
      "Ġinjuries": 6043,
      "water": 6044,
      "Ġbright": 6045,
      "Ġfraction": 6046,
      "Ġmedium": 6047,
      "ĠEd": 6048,
      "Ġreviews": 6049,
      "Ġcommitted": 6050,
      "Ġattending": 6051,
      "Ġvisibility": 6052,
      "Ġindicates": 6053,
      "ĠSometimes": 6054,
      "Ġcaptivating": 6055,
      "Ġsafeguard": 6056,
      "ĠBefore": 6057,
      "Ġshowcasing": 6058,
      "Ġtradition": 6059,
      "Ġconfirm": 6060,
      "Ġpromp": 6061,
      "Ġsurve": 6062,
      "Ġculinary": 6063,
      "Ġsophisticated": 6064,
      "Ġli": 6065,
      "Ġgentle": 6066,
      "Ġ}": 6067,
      "ĠNote": 6068,
      "roc": 6069,
      "ĠEth": 6070,
      "Ġinterventions": 6071,
      "forward": 6072,
      "agon": 6073,
      "Ġinterested": 6074,
      "Ġworkshops": 6075,
      "dis": 6076,
      "which": 6077,
      "That": 6078,
      "These": 6079,
      "ĠYet": 6080,
      "Ġtells": 6081,
      "Ġ(\\": 6082,
      "Ġstatistics": 6083,
      "Ġavailability": 6084,
      "Ġdefining": 6085,
      "`.": 6086,
      "{(": 6087,
      "Ġinvestors": 6088,
      "ĠÏ": 6089,
      "Ġoperational": 6090,
      "uses": 6091,
      "Ġreturns": 6092,
      "ĠLastly": 6093,
      "axis": 6094,
      "ĠRedd": 6095,
      "Ġvict": 6096,
      "Ġanalytics": 6097,
      "Ġcomplexities": 6098,
      "Ġequivalent": 6099,
      "Ġfem": 6100,
      "Ġphenomena": 6101,
      "fficients": 6102,
      "Ġquantities": 6103,
      "ĠProgram": 6104,
      "Ġcontrast": 6105,
      "Ġrewards": 6106,
      "key": 6107,
      "Ġbul": 6108,
      "Ġeveryday": 6109,
      "ĠStay": 6110,
      "ortive": 6111,
      "Ġgaps": 6112,
      "ourses": 6113,
      "ĠNavig": 6114,
      "Ġinterconnected": 6115,
      "Ġsatisfying": 6116,
      "ceptions": 6117,
      "ishes": 6118,
      "ĠMia": 6119,
      "Ġpoll": 6120,
      "ĠFocus": 6121,
      "elta": 6122,
      "Ġentry": 6123,
      "Ġsuit": 6124,
      "Ġinfluences": 6125,
      "related": 6126,
      "Ġtiss": 6127,
      "Ġachievements": 6128,
      "Ġaccomp": 6129,
      "Ġdisciplines": 6130,
      "Ġgenerally": 6131,
      "Ġamazing": 6132,
      "Ġtargeted": 6133,
      "ĠClear": 6134,
      "load": 6135,
      "Ġaftern": 6136,
      "Ġcollaborative": 6137,
      "Ġorigin": 6138,
      "ĠLim": 6139,
      "Ġcultivating": 6140,
      "Ġdefinitions": 6141,
      "ĠProcess": 6142,
      "Rem": 6143,
      "ĠAssess": 6144,
      "Ġvertical": 6145,
      "ĠMethod": 6146,
      "Ġmonitor": 6147,
      "Ġfees": 6148,
      "Ġease": 6149,
      "anship": 6150,
      "Ġcompare": 6151,
      "onge": 6152,
      "Ġinclusivity": 6153,
      "Ġseamlessly": 6154,
      "Ġloans": 6155,
      "Ġminds": 6156,
      "Ġthread": 6157,
      "Ġimmense": 6158,
      "illed": 6159,
      "Ġphase": 6160,
      "Ġlifestyle": 6161,
      "ĠJapan": 6162,
      "Ġenthusiasm": 6163,
      "Ġconduct": 6164,
      "Ġproducing": 6165,
      "such": 6166,
      "Ġcompetitors": 6167,
      "Ġsuggest": 6168,
      "|\\": 6169,
      "Ġcompletely": 6170,
      "ĠSaf": 6171,
      "Ġrevolution": 6172,
      "enty": 6173,
      "ĠInternational": 6174,
      "ives": 6175,
      "eyond": 6176,
      "house": 6177,
      "Ġreveals": 6178,
      "bing": 6179,
      "Ġidentities": 6180,
      "Ġidentified": 6181,
      "ĠCity": 6182,
      "ĠMathema": 6183,
      "ĠNevertheless": 6184,
      "esus": 6185,
      "Ġconfidently": 6186,
      "othing": 6187,
      "Ġdear": 6188,
      "rol": 6189,
      "Ġsaying": 6190,
      "Ġpreparing": 6191,
      "Ġidentical": 6192,
      "Ġbrief": 6193,
      "Ġweaknesses": 6194,
      "Ġworkers": 6195,
      "Ġemergency": 6196,
      "----------------------------": 6197,
      "otic": 6198,
      "ags": 6199,
      "Ġcritically": 6200,
      "Ġhumans": 6201,
      "vis": 6202,
      "Ġreasons": 6203,
      "Ġbra": 6204,
      "Ġdivision": 6205,
      "Ġblend": 6206,
      "Ġcommercial": 6207,
      "Ġsignal": 6208,
      "ĠBar": 6209,
      "Ġentails": 6210,
      "ĠBre": 6211,
      "Ġpursuing": 6212,
      "Ġframework": 6213,
      "Ġcomposition": 6214,
      "Ġclick": 6215,
      "ĠEmb": 6216,
      "aker": 6217,
      "Ġwave": 6218,
      "Ġmap": 6219,
      "ighter": 6220,
      "taining": 6221,
      "Ġunus": 6222,
      "Ġtransactions": 6223,
      "ĠLife": 6224,
      "Ġfant": 6225,
      "Ġinspiring": 6226,
      "Since": 6227,
      "gi": 6228,
      "Ġreputable": 6229,
      "Ġinternet": 6230,
      "ĠOffer": 6231,
      "Ġwilling": 6232,
      "bda": 6233,
      "Ġlighting": 6234,
      "Well": 6235,
      "}=": 6236,
      "Ġentertainment": 6237,
      "Ġstop": 6238,
      "era": 6239,
      "Ġunderstood": 6240,
      "Ġ${": 6241,
      "Ġtransforming": 6242,
      "ulated": 6243,
      "Ġtexture": 6244,
      "ĠLittle": 6245,
      "ĠUniversity": 6246,
      "Ġconvenience": 6247,
      "Ġinstitution": 6248,
      "Ġcha": 6249,
      "Ġreflects": 6250,
      "Ġballs": 6251,
      "Ġmanual": 6252,
      "Ġharmony": 6253,
      "Ġvehicles": 6254,
      "Ġmort": 6255,
      "ĠBack": 6256,
      "Ġemerge": 6257,
      "pecting": 6258,
      "asy": 6259,
      "Ġampl": 6260,
      "Ġcars": 6261,
      "ĠKnow": 6262,
      "Ġstraightforward": 6263,
      "Ġthrive": 6264,
      "Sc": 6265,
      "dim": 6266,
      "Ġstruggles": 6267,
      "mark": 6268,
      "Ġvisually": 6269,
      "Ġwondered": 6270,
      "Ġgir": 6271,
      "Ġtemperatures": 6272,
      "Ġmultiply": 6273,
      "AC": 6274,
      "Ġmeant": 6275,
      "Ġpeers": 6276,
      "ĠPay": 6277,
      "Ġparameters": 6278,
      "Ġenjoying": 6279,
      "aters": 6280,
      "ek": 6281,
      "ometric": 6282,
      "Ġexperim": 6283,
      "uli": 6284,
      "asures": 6285,
      "ĠBenny": 6286,
      "Ġpercent": 6287,
      "cho": 6288,
      "ĠUs": 6289,
      "Ġremove": 6290,
      "Ġreward": 6291,
      "Ġclinical": 6292,
      "ĠEmily": 6293,
      "Ġdeath": 6294,
      "Ġdescribe": 6295,
      "ĠLever": 6296,
      "Ġphotograph": 6297,
      "Ġseasoned": 6298,
      "Ġpopularity": 6299,
      "Ġcoefficients": 6300,
      "Ġadventures": 6301,
      "Ġrelevance": 6302,
      "Ġdance": 6303,
      "Ġserious": 6304,
      "arrow": 6305,
      "Ġmuscle": 6306,
      "Ġpayment": 6307,
      "Ġresidents": 6308,
      "etheless": 6309,
      "Ġfreedom": 6310,
      "Ġsupportive": 6311,
      "Ġcoming": 6312,
      "ĠThompson": 6313,
      "Ġconvey": 6314,
      "Ġexpressing": 6315,
      "Ġdoors": 6316,
      "ĠMat": 6317,
      "Ġexperiencing": 6318,
      "Ġdro": 6319,
      "mic": 6320,
      "*}": 6321,
      "anking": 6322,
      "idity": 6323,
      "Ġwrong": 6324,
      "Ġbackgrounds": 6325,
      "arp": 6326,
      "netic": 6327,
      "ĠJesus": 6328,
      "Ġgratitude": 6329,
      "Ġafternoon": 6330,
      "Ġwatching": 6331,
      "Ġdistances": 6332,
      "phi": 6333,
      "Ġpreserve": 6334,
      "Ġmeasuring": 6335,
      "Ġprofit": 6336,
      "Ġoffice": 6337,
      "Ġinvestments": 6338,
      "Ġolder": 6339,
      "Ġring": 6340,
      "Ġpassage": 6341,
      "ĠIniti": 6342,
      "ĠUnderstand": 6343,
      "ĠFl": 6344,
      "Unit": 6345,
      "Ġround": 6346,
      "Ġmachines": 6347,
      "ĠEuropean": 6348,
      "Ġtrees": 6349,
      "ĠDif": 6350,
      "Ġopinions": 6351,
      "Ġrain": 6352,
      "uctu": 6353,
      "Ġsuppose": 6354,
      "Ġcream": 6355,
      "usions": 6356,
      "Ġexempl": 6357,
      "Ġfruits": 6358,
      "ĠUtilize": 6359,
      "urring": 6360,
      "Ġmarginal": 6361,
      "Ġminimum": 6362,
      "Ġunderscores": 6363,
      "inant": 6364,
      "Ġfriendly": 6365,
      "Ġslowly": 6366,
      "Ġpal": 6367,
      "}_": 6368,
      "Ġfrag": 6369,
      "Ġvisiting": 6370,
      "Ġsufficient": 6371,
      "Ġrevealing": 6372,
      "zy": 6373,
      "istry": 6374,
      "Sh": 6375,
      "erce": 6376,
      "Ġgathered": 6377,
      "apeutic": 6378,
      "Ġjournal": 6379,
      "manship": 6380,
      "Ġdenominator": 6381,
      "Ġauthenticity": 6382,
      "lamm": 6383,
      "arsh": 6384,
      "Ġapples": 6385,
      "qq": 6386,
      "Ġvideos": 6387,
      "oys": 6388,
      "Ġpun": 6389,
      "rate": 6390,
      "Ġarrived": 6391,
      "Ġunlike": 6392,
      "Rec": 6393,
      "Ġreports": 6394,
      "Ġobservations": 6395,
      "ĠPos": 6396,
      "uests": 6397,
      "Ġdivided": 6398,
      "ĠMulti": 6399,
      "Ġproof": 6400,
      "Ġrace": 6401,
      "Ġsand": 6402,
      "Ġobserving": 6403,
      "Ġinnovations": 6404,
      "Ġinverse": 6405,
      "ĠTest": 6406,
      "ĨĴ": 6407,
      "Ġviews": 6408,
      "Ġspl": 6409,
      "Ġsecre": 6410,
      "Ġjudg": 6411,
      "Ġplane": 6412,
      "ĠNext": 6413,
      "Ġtwice": 6414,
      "Ġsupports": 6415,
      "Ġdiscrim": 6416,
      "Ġsegment": 6417,
      "Ġmatches": 6418,
      "En": 6419,
      "https": 6420,
      "ĠContin": 6421,
      "Ġupcoming": 6422,
      "Ġvir": 6423,
      "Ġdeal": 6424,
      "igma": 6425,
      "ĠEncouraging": 6426,
      "rific": 6427,
      "Ġarbit": 6428,
      "^(": 6429,
      "Ġmarked": 6430,
      "Ġcooperation": 6431,
      "ĠMicro": 6432,
      "Ġversatile": 6433,
      "Ġmitigate": 6434,
      "ros": 6435,
      "Ġintended": 6436,
      "Ġholistic": 6437,
      "Ġstim": 6438,
      "Ġproving": 6439,
      "Ġcontract": 6440,
      "PS": 6441,
      "Ġbeneficial": 6442,
      "igration": 6443,
      "Ġpartner": 6444,
      "Ġcycle": 6445,
      "erve": 6446,
      "Ġvolunte": 6447,
      "Ġthous": 6448,
      "Ġsector": 6449,
      "Ġgrace": 6450,
      "Ġcircles": 6451,
      "ictures": 6452,
      "Ġrelaxation": 6453,
      "Ġfinance": 6454,
      "ersonal": 6455,
      ".$": 6456,
      "Ġfan": 6457,
      "Ġreporting": 6458,
      "Ġfashion": 6459,
      "Ġquantity": 6460,
      "Ġcreatures": 6461,
      "Ġexplicitly": 6462,
      "Ġaesthetics": 6463,
      "ressed": 6464,
      "Ġmilitary": 6465,
      "Ġupper": 6466,
      "arith": 6467,
      "Ġflour": 6468,
      "Ġcloth": 6469,
      "ĠSouth": 6470,
      "Ġfruit": 6471,
      "Ġpassionate": 6472,
      "inning": 6473,
      "Ġgathering": 6474,
      "Ġincident": 6475,
      "Ġhappen": 6476,
      "Ġmarvel": 6477,
      "Ġsavings": 6478,
      "{{": 6479,
      "ĠFuture": 6480,
      "Ph": 6481,
      "Ġsugar": 6482,
      "Ġrespectively": 6483,
      "arity": 6484,
      "Ġfluctu": 6485,
      "Ġextreme": 6486,
      "ibl": 6487,
      "}}{": 6488,
      "Ġattempting": 6489,
      "Ġpassing": 6490,
      "Ġstatistical": 6491,
      "ounters": 6492,
      "Ġaudio": 6493,
      "Ġtast": 6494,
      "Ġcalls": 6495,
      "venues": 6496,
      "ĠPublic": 6497,
      "Ġassist": 6498,
      "Ġextend": 6499,
      "Ġmissing": 6500,
      "Ġpolicym": 6501,
      "racts": 6502,
      "Ġsignals": 6503,
      "Ġoccasion": 6504,
      "Ġparticles": 6505,
      "Ġspecified": 6506,
      "ĠJack": 6507,
      "Ġprominent": 6508,
      "----------": 6509,
      "Ġunusual": 6510,
      "Ġpainting": 6511,
      "Ġodd": 6512,
      "ĠIndeed": 6513,
      "Ġpersonality": 6514,
      "Ġquiet": 6515,
      "Ġlean": 6516,
      "Ġnone": 6517,
      "Ġextends": 6518,
      "Ġrecommended": 6519,
      "Ġconversion": 6520,
      "Ġnuanced": 6521,
      "Ġcategory": 6522,
      "ĠEl": 6523,
      "Ġign": 6524,
      "arr": 6525,
      "Ġdebate": 6526,
      "Ġeigen": 6527,
      "Ġcohes": 6528,
      "Ġimportantly": 6529,
      "Ġwoman": 6530,
      "Pl": 6531,
      "Ġarray": 6532,
      "Ġpromptly": 6533,
      "Ġattract": 6534,
      "Ġdx": 6535,
      "Ġtangible": 6536,
      "Ġcombine": 6537,
      "ĠDi": 6538,
      "Ġperseverance": 6539,
      "Ġcontrovers": 6540,
      "Ġpreferred": 6541,
      "ĠĠĠĠĠĠĠ": 6542,
      "Ġfer": 6543,
      "ĠMaya": 6544,
      "iation": 6545,
      "Ġthrow": 6546,
      "Ġfractions": 6547,
      "Ġamongst": 6548,
      "oking": 6549,
      "fac": 6550,
      "Ġstriking": 6551,
      "Ġclarity": 6552,
      "onomic": 6553,
      "tedly": 6554,
      "orre": 6555,
      "Ġovercome": 6556,
      "otor": 6557,
      "Ġshown": 6558,
      "Ġadj": 6559,
      "ding": 6560,
      "Ġfewer": 6561,
      "dimensional": 6562,
      "Ġtun": 6563,
      "Ġoccup": 6564,
      "Ġtrick": 6565,
      "Ġiter": 6566,
      "Ġdiscourse": 6567,
      "fortunately": 6568,
      "ĠMo": 6569,
      "cipl": 6570,
      "ĠEnglish": 6571,
      "iant": 6572,
      "Ġhistor": 6573,
      "inc": 6574,
      "Ġspending": 6575,
      "Ġprecious": 6576,
      "min": 6577,
      "dep": 6578,
      "ĠTom": 6579,
      "Ġownership": 6580,
      "Ġmedicine": 6581,
      "ime": 6582,
      "Ġmeets": 6583,
      "Ġec": 6584,
      "Ġ14": 6585,
      "ln": 6586,
      "Ġcolleagues": 6587,
      "rary": 6588,
      "Ġenforcement": 6589,
      "Ġapps": 6590,
      "Ġmagn": 6591,
      "ilon": 6592,
      "ĠOpen": 6593,
      "Ġrecipe": 6594,
      "ĠEffective": 6595,
      "Ġprecisely": 6596,
      "ĠWork": 6597,
      "onial": 6598,
      "tific": 6599,
      "ĠSign": 6600,
      "Ġrestrictions": 6601,
      "Ġdecades": 6602,
      "Ġmeasurements": 6603,
      "ait": 6604,
      "Ġviolence": 6605,
      "Ġfaces": 6606,
      "Ġdatab": 6607,
      "Ġgeometric": 6608,
      "Ġtraits": 6609,
      "ĠSetting": 6610,
      "ĠMore": 6611,
      "Ġorganic": 6612,
      "ĠTake": 6613,
      "Ġequality": 6614,
      "ycl": 6615,
      "ĠDiscuss": 6616,
      "tification": 6617,
      "ĠII": 6618,
      "Ġdram": 6619,
      "raft": 6620,
      "Ġresist": 6621,
      "ĠGreen": 6622,
      "estiv": 6623,
      "ieties": 6624,
      "],": 6625,
      "Ġvigil": 6626,
      "ĠReddit": 6627,
      "Ġillum": 6628,
      "Ġassume": 6629,
      "Ġ50": 6630,
      "Ġpictures": 6631,
      "Ġcompleting": 6632,
      "ĠCompreh": 6633,
      "Explanation": 6634,
      "Ġpromise": 6635,
      "Ġmeal": 6636,
      "ĠImpro": 6637,
      "Ġinterpretation": 6638,
      "ula": 6639,
      "Ġtargeting": 6640,
      "Ġclaims": 6641,
      "ĠNe": 6642,
      "estim": 6643,
      "Ġdivis": 6644,
      "Ġconstitutes": 6645,
      "Ġbank": 6646,
      "Ġcaught": 6647,
      "Ġindicate": 6648,
      "erb": 6649,
      "Ġmanufacturers": 6650,
      "arter": 6651,
      "Ġfabric": 6652,
      "Ġdental": 6653,
      "Ġinh": 6654,
      "Ġdecide": 6655,
      "Ġhorizontal": 6656,
      "using": 6657,
      "Ġtransformative": 6658,
      "Ġsour": 6659,
      "ĠSum": 6660,
      "Ġsacrific": 6661,
      "ĠExample": 6662,
      "Ġtele": 6663,
      "Ġfeels": 6664,
      "Ġflat": 6665,
      "Ġannual": 6666,
      "taking": 6667,
      "enges": 6668,
      "Ġinvolvement": 6669,
      "Ġ11": 6670,
      "Ġdurability": 6671,
      "Ġdomains": 6672,
      "Ġmixed": 6673,
      "anged": 6674,
      "Ġkn": 6675,
      "Ġassessment": 6676,
      "Ġplaced": 6677,
      "ĠLearning": 6678,
      "arader": 6679,
      "araderie": 6680,
      "Ġhomes": 6681,
      "Ġclub": 6682,
      "ĠRelations": 6683,
      "Ġwash": 6684,
      "Ġquadratic": 6685,
      "Ġadherence": 6686,
      "ĠLike": 6687,
      "Ġow": 6688,
      "versely": 6689,
      "||": 6690,
      "Tr": 6691,
      "vent": 6692,
      "Ġdifferential": 6693,
      "ocol": 6694,
      "ĠPlus": 6695,
      "Ġhyper": 6696,
      "Ġthick": 6697,
      "Ġtech": 6698,
      "Ġhence": 6699,
      "Ġcash": 6700,
      "Ġeconomy": 6701,
      "ER": 6702,
      "ĠShare": 6703,
      "Ġpurchase": 6704,
      "ĠPlay": 6705,
      "Ġacting": 6706,
      "Ġcamaraderie": 6707,
      "ĠAut": 6708,
      "Ġswitch": 6709,
      "Ġharmful": 6710,
      "Ġsweet": 6711,
      "Ġtrain": 6712,
      "Ġaesthetic": 6713,
      "amma": 6714,
      "Ġaccum": 6715,
      "Ġentrepreneurs": 6716,
      "Ġdisrup": 6717,
      "Ġstructural": 6718,
      "Ġguests": 6719,
      "Ġhumanity": 6720,
      "Ġcourses": 6721,
      "igital": 6722,
      "ĠPrior": 6723,
      "Ġrecognized": 6724,
      "ellow": 6725,
      "ĠAltern": 6726,
      "Ġdelves": 6727,
      "ĠExploring": 6728,
      "Ġequil": 6729,
      "Ġmistakes": 6730,
      "Ġwhis": 6731,
      "Ġjump": 6732,
      "Ġradius": 6733,
      "tising": 6734,
      "Ġencounters": 6735,
      "Ġteacher": 6736,
      "Ġaccessories": 6737,
      "Ġtherapeutic": 6738,
      "ographical": 6739,
      "Ġcompromising": 6740,
      "ĠApplications": 6741,
      "Ġtall": 6742,
      "Ġrooted": 6743,
      "Ġrhyth": 6744,
      "Ġintroducing": 6745,
      "Ġtrend": 6746,
      "Ġdesigners": 6747,
      "Ġoneself": 6748,
      "Ġopt": 6749,
      "Ġreliability": 6750,
      "mod": 6751,
      "ĠPart": 6752,
      "Ġshares": 6753,
      "lick": 6754,
      "brace": 6755,
      "ĠUpon": 6756,
      "Ġperceived": 6757,
      "Ġaccompan": 6758,
      "ĠReview": 6759,
      "Ġreceiving": 6760,
      "Ġgovernance": 6761,
      "Ġorganizing": 6762,
      "efined": 6763,
      "Remember": 6764,
      "Ġincluded": 6765,
      "Ġformer": 6766,
      "ĠEnter": 6767,
      "Ġreference": 6768,
      "Ġcopy": 6769,
      "Ġindicating": 6770,
      "Ġsquares": 6771,
      "pread": 6772,
      "Ġq": 6773,
      "Ġmusicians": 6774,
      "faceted": 6775,
      "roud": 6776,
      "Ġbow": 6777,
      "Ġthriving": 6778,
      "Ġclothing": 6779,
      "AS": 6780,
      "Ġdate": 6781,
      "Ġrecon": 6782,
      "ĠProduc": 6783,
      "Ġstood": 6784,
      "Ġnoise": 6785,
      "ĠAP": 6786,
      "Ġdiscoveries": 6787,
      "ĠSchool": 6788,
      "ĠCheck": 6789,
      "Ġtransitions": 6790,
      "Ġnarrow": 6791,
      "ĠStart": 6792,
      "ĠDeterm": 6793,
      "ĠRuss": 6794,
      "Ġcounsel": 6795,
      "ĠUtilizing": 6796,
      "Ġabstract": 6797,
      "bl": 6798,
      "Ġcreations": 6799,
      "rie": 6800,
      "Ġrock": 6801,
      "Ġmillion": 6802,
      "Ġspect": 6803,
      "Ġselected": 6804,
      "Ġobtained": 6805,
      "Ġcontexts": 6806,
      "Ġpassions": 6807,
      "ongevity": 6808,
      "Ġdiseases": 6809,
      "estry": 6810,
      "Ġnames": 6811,
      "Ġraising": 6812,
      "Ġprofile": 6813,
      "Ġflexible": 6814,
      "Ġpromises": 6815,
      "Ġelectronic": 6816,
      "Ġmiddle": 6817,
      "Ġfamous": 6818,
      "ĠImplementing": 6819,
      "Ġtimely": 6820,
      "Ġshad": 6821,
      "onomy": 6822,
      "tors": 6823,
      "ĠState": 6824,
      "Ġphr": 6825,
      "Ġcryptocurr": 6826,
      "Ġimper": 6827,
      "Ġsmiled": 6828,
      "Ġindex": 6829,
      "Ġdifferently": 6830,
      "Ġoverwhelming": 6831,
      "ae": 6832,
      "ĠComprehensive": 6833,
      "ĠNonetheless": 6834,
      "Ġversus": 6835,
      "Ġmeditation": 6836,
      "Ġrenowned": 6837,
      "tingu": 6838,
      "Ġsparked": 6839,
      "OS": 6840,
      "Ġpand": 6841,
      "Ġmindfulness": 6842,
      "uity": 6843,
      "Ġpsychological": 6844,
      "Ġsky": 6845,
      "Ġproperly": 6846,
      "Ġ25": 6847,
      "fol": 6848,
      "ĠLa": 6849,
      "Ġobservation": 6850,
      "Ġcombat": 6851,
      "rons": 6852,
      "Ġloan": 6853,
      "Ġsecuring": 6854,
      "Ġdomes": 6855,
      "Cl": 6856,
      "Ġskilled": 6857,
      "Ġguarantees": 6858,
      "overn": 6859,
      "Ġesc": 6860,
      "Ġneither": 6861,
      "Ġchecking": 6862,
      "Ġoutlined": 6863,
      "fun": 6864,
      "Ġpark": 6865,
      "Ġcandies": 6866,
      ".)": 6867,
      "ĠOnline": 6868,
      "Ġevening": 6869,
      "Ġresonate": 6870,
      "ĠPot": 6871,
      "Ġiconic": 6872,
      "Ġvariety": 6873,
      "Ġbeginning": 6874,
      "Ġnaturally": 6875,
      "idespread": 6876,
      "--------------------": 6877,
      "Ġnecessitates": 6878,
      "'d": 6879,
      "Ġinvent": 6880,
      "Ġsmoothly": 6881,
      "Ġallevi": 6882,
      "ĠDiv": 6883,
      "Ġleverage": 6884,
      "oting": 6885,
      "Ġcovered": 6886,
      "eries": 6887,
      "Ġdensity": 6888,
      "Ġfoods": 6889,
      "Ġstrange": 6890,
      "asive": 6891,
      "Ġemployment": 6892,
      "ĠRet": 6893,
      "Ġmodifications": 6894,
      "MS": 6895,
      "rating": 6896,
      "position": 6897,
      "ino": 6898,
      "quis": 6899,
      "ĠComb": 6900,
      "mathcal": 6901,
      "uding": 6902,
      "Ġwindow": 6903,
      "Ġcenters": 6904,
      "Ġnation": 6905,
      "Ġcounterpar": 6906,
      "Ġopposite": 6907,
      "Ġcalm": 6908,
      "Ġcorresponds": 6909,
      "Ġpresentation": 6910,
      "ĠTrad": 6911,
      "ĠTheorem": 6912,
      "ĠYork": 6913,
      "Ġsuperior": 6914,
      "Ġlongevity": 6915,
      "apy": 6916,
      "dy": 6917,
      "ĠAct": 6918,
      "Ġempowers": 6919,
      "Ġfailure": 6920,
      "Ġconfident": 6921,
      "arking": 6922,
      "tw": 6923,
      "Ġcoordinates": 6924,
      "Ġhappy": 6925,
      "Ġspeech": 6926,
      "letes": 6927,
      "ĠPrep": 6928,
      "Ġwidespread": 6929,
      "estern": 6930,
      "rium": 6931,
      "Ġpages": 6932,
      "Ġarguments": 6933,
      "orship": 6934,
      "Ġsession": 6935,
      "Ġcommonly": 6936,
      "uman": 6937,
      "tile": 6938,
      "gent": 6939,
      "Ġtried": 6940,
      "ĠStudents": 6941,
      "lambda": 6942,
      "ĠOff": 6943,
      "Ġpersonalized": 6944,
      "Ġstars": 6945,
      "Ġarchitecture": 6946,
      "ĠFe": 6947,
      "tes": 6948,
      "Ġconservation": 6949,
      "Ġnumerical": 6950,
      "Ġtrou": 6951,
      "Ġfitness": 6952,
      "ĠCri": 6953,
      "ĠCB": 6954,
      "Ġkindness": 6955,
      "Ġadhering": 6956,
      "ithmetic": 6957,
      "Ġrac": 6958,
      "Ġrevealed": 6959,
      "Ġarmed": 6960,
      "Ġfirms": 6961,
      "rated": 6962,
      "ĠDoc": 6963,
      "Ar": 6964,
      "Ġforg": 6965,
      "Ġlegacy": 6966,
      "Ġmal": 6967,
      "Ġcounting": 6968,
      "Ġcorporate": 6969,
      "Ġharmonious": 6970,
      "ĠJourn": 6971,
      "Ġ13": 6972,
      "Ġdin": 6973,
      "/(": 6974,
      "Ġproud": 6975,
      "Ġslic": 6976,
      "Ġactors": 6977,
      "ĠStand": 6978,
      "Ġderivatives": 6979,
      ")+": 6980,
      "oral": 6981,
      "long": 6982,
      "worth": 6983,
      "Ġcatering": 6984,
      "\",": 6985,
      "Ġacquis": 6986,
      "level": 6987,
      "Ġnoting": 6988,
      "efits": 6989,
      "Ġartificial": 6990,
      "ĠCoun": 6991,
      "Ġbacter": 6992,
      "Ġpuzzle": 6993,
      "aul": 6994,
      "ĠBo": 6995,
      "Ġmilest": 6996,
      "ĠIndia": 6997,
      "Ġcold": 6998,
      "Ġ2018": 6999,
      "Ġintense": 7000,
      "Ġphenomenon": 7001,
      "ĠDist": 7002,
      "discipl": 7003,
      "Ġlogarith": 7004,
      "Ġtale": 7005,
      "Ġaccep": 7006,
      "Ġroutines": 7007,
      "ĠConversely": 7008,
      "Ġgenetic": 7009,
      "Ġacid": 7010,
      "Ġsearching": 7011,
      "ruption": 7012,
      "Ġvoices": 7013,
      "Ġtrusted": 7014,
      "ĠAssoci": 7015,
      "ultiv": 7016,
      "Ġagents": 7017,
      "Ġordinary": 7018,
      "Ġcounterparts": 7019,
      "ED": 7020,
      "plicity": 7021,
      "Ġfacts": 7022,
      "ĠAllow": 7023,
      "Ġintervals": 7024,
      "ĠPost": 7025,
      "unt": 7026,
      "Ġegg": 7027,
      "Ġstick": 7028,
      "Ġborrow": 7029,
      "Ġneuro": 7030,
      "Ġfilter": 7031,
      "ashing": 7032,
      "Ġintegrated": 7033,
      "CD": 7034,
      "Of": 7035,
      "ĠNeed": 7036,
      "Ġsubjects": 7037,
      "riptions": 7038,
      "Ġhousing": 7039,
      "ĠWr": 7040,
      "Ġnuc": 7041,
      "ĠIde": 7042,
      "table": 7043,
      "Ġletters": 7044,
      "ogen": 7045,
      "Ġemployee": 7046,
      "Ġmeetings": 7047,
      "Ġtalking": 7048,
      "date": 7049,
      "Ġtraveling": 7050,
      "Ġdestination": 7051,
      "Ġtransformations": 7052,
      "Ġparallel": 7053,
      "urm": 7054,
      "oning": 7055,
      "ographics": 7056,
      "Ġposed": 7057,
      "ployment": 7058,
      "Ġblockchain": 7059,
      "Ġtight": 7060,
      "Ġthousands": 7061,
      "Ġgrew": 7062,
      "ĠFace": 7063,
      "From": 7064,
      "ette": 7065,
      "Ġteachers": 7066,
      "Ġprospects": 7067,
      "yses": 7068,
      "Ġpit": 7069,
      "Ġemphasizes": 7070,
      "Ġunknown": 7071,
      "itam": 7072,
      "ĠChina": 7073,
      "Ġaware": 7074,
      "Ġempir": 7075,
      "Ġlinked": 7076,
      "ĠGuideline": 7077,
      "Ġprofiles": 7078,
      "Ġchat": 7079,
      "Ġdaunting": 7080,
      "Ġspots": 7081,
      "Ġlegis": 7082,
      "aven": 7083,
      "Ġequity": 7084,
      "Ġmeticulously": 7085,
      "Ġsnipp": 7086,
      "tire": 7087,
      "ĠGroup": 7088,
      "Ġlengths": 7089,
      "Ġargument": 7090,
      "Ġdisorders": 7091,
      "Ġsignifies": 7092,
      "Ġtreating": 7093,
      "Ġmouth": 7094,
      "ancies": 7095,
      "Ġdiscovering": 7096,
      "He": 7097,
      "Ġbalancing": 7098,
      "Ġcities": 7099,
      "Ġmanipulation": 7100,
      "pace": 7101,
      "ipe": 7102,
      "Ġeight": 7103,
      "CA": 7104,
      "Ġwalls": 7105,
      "Ġguiding": 7106,
      "Ġmultifaceted": 7107,
      "Ġshifting": 7108,
      "Ġmillions": 7109,
      "Ġdating": 7110,
      "uis": 7111,
      "ĠMaria": 7112,
      "ĠConsiderations": 7113,
      "ĠCommunity": 7114,
      "Ġfunding": 7115,
      "Ġallocation": 7116,
      "Ġcong": 7117,
      "Ġjoining": 7118,
      "Ġversatility": 7119,
      "Ġdocumentation": 7120,
      "Ġbirth": 7121,
      "ĠAng": 7122,
      "Ġalmost": 7123,
      "Ġmagnit": 7124,
      "zero": 7125,
      "Ġpolicymakers": 7126,
      "Ġconducting": 7127,
      "Ġacadem": 7128,
      "Ġtold": 7129,
      "Ġhabit": 7130,
      "Ġscores": 7131,
      "Ġfriendship": 7132,
      "Ġmessaging": 7133,
      "oga": 7134,
      "ailing": 7135,
      "Ġfold": 7136,
      "Ġrefining": 7137,
      "aver": 7138,
      "Ġmysterious": 7139,
      "antic": 7140,
      "ĠJohnson": 7141,
      "Ac": 7142,
      "Ġprotein": 7143,
      "Ġreminded": 7144,
      "Ġreduction": 7145,
      "Ġcontinuity": 7146,
      "dt": 7147,
      "Ġdecor": 7148,
      "ustration": 7149,
      "Ġhosting": 7150,
      "roph": 7151,
      "celeration": 7152,
      "Ġhaz": 7153,
      "Ġbutton": 7154,
      "Ġeco": 7155,
      "ĠChallenges": 7156,
      "Ġskep": 7157,
      "ĠSystems": 7158,
      "Ġrows": 7159,
      "ĠProm": 7160,
      "Ġgovernments": 7161,
      "Ġexponential": 7162,
      "Ġhardware": 7163,
      "urrent": 7164,
      "ĠBet": 7165,
      "Ġdistingu": 7166,
      "Ġconstantly": 7167,
      "ĠEnh": 7168,
      "Ġwish": 7169,
      "ĠSuppose": 7170,
      "Ad": 7171,
      "Ġbill": 7172,
      "Ġsuggesting": 7173,
      "rupt": 7174,
      "Ġven": 7175,
      "soft": 7176,
      "ĠRespons": 7177,
      "Ġversions": 7178,
      "Ġshaped": 7179,
      "inding": 7180,
      "Ġpaid": 7181,
      "Ġinteractive": 7182,
      "Ġstruck": 7183,
      "uate": 7184,
      "ĠPark": 7185,
      "Ġbelieved": 7186,
      "Ġweigh": 7187,
      "ĠGerm": 7188,
      "Ġproduced": 7189,
      "ĠTechnology": 7190,
      "Ġconfusion": 7191,
      "Ġrepresentations": 7192,
      "Ġseeing": 7193,
      "ĠNorth": 7194,
      "tible": 7195,
      "Ġendeavors": 7196,
      "Ġmoisture": 7197,
      "Ġbringing": 7198,
      "Ġhealthier": 7199,
      "ault": 7200,
      "ĠParticip": 7201,
      "Ġdivine": 7202,
      "ĠPoli": 7203,
      "Ġpartial": 7204,
      "Ġstreamline": 7205,
      "piec": 7206,
      "cean": 7207,
      "comm": 7208,
      "Ġschedules": 7209,
      "Ġaccounting": 7210,
      "ĠList": 7211,
      "upp": 7212,
      "Ġmechanics": 7213,
      "ateral": 7214,
      "Ġadaptation": 7215,
      "ĠDo": 7216,
      "ĠEurope": 7217,
      "Ġcollecting": 7218,
      "ĠPractical": 7219,
      "Ġfloor": 7220,
      "Ġsugges": 7221,
      "Ġstarts": 7222,
      "Ġeagerly": 7223,
      "Ġtexts": 7224,
      "Ġwalking": 7225,
      "Ġdisparate": 7226,
      "Ġrepeated": 7227,
      "Ġnecessarily": 7228,
      "ĠApply": 7229,
      "Ġhappiness": 7230,
      "Ġcompens": 7231,
      "Ġenduring": 7232,
      "ran": 7233,
      "Ġshowcase": 7234,
      "Ġtheories": 7235,
      "Ġattributes": 7236,
      "tively": 7237,
      "Ġload": 7238,
      "Ġarticles": 7239,
      "Ġhour": 7240,
      "omb": 7241,
      "Ġhypoth": 7242,
      "Ġtherm": 7243,
      "Ġdism": 7244,
      "Using": 7245,
      "Ġschedule": 7246,
      "Ġinstallation": 7247,
      "My": 7248,
      "Ġfluid": 7249,
      "gers": 7250,
      "Ġmood": 7251,
      "icks": 7252,
      "Ġstable": 7253,
      "Ġequitable": 7254,
      "Ġinduc": 7255,
      "Ġera": 7256,
      "Ġhighlighted": 7257,
      "Consider": 7258,
      "rm": 7259,
      "Ġupdated": 7260,
      "Ġmomentum": 7261,
      "here": 7262,
      "Ġsurg": 7263,
      "col": 7264,
      "words": 7265,
      "omorph": 7266,
      "Ġscore": 7267,
      "ĠHistorical": 7268,
      "Ġbasis": 7269,
      "ĠEmbracing": 7270,
      "leq": 7271,
      "ĠEast": 7272,
      "Ġadoption": 7273,
      "Ġaxis": 7274,
      "Ġstruggling": 7275,
      "breaking": 7276,
      "Ġviewers": 7277,
      "Ġearth": 7278,
      "Ġmoun": 7279,
      "Ġtensions": 7280,
      "imming": 7281,
      "Ġsold": 7282,
      "Ġpayments": 7283,
      "Ġends": 7284,
      "Ġvulnerable": 7285,
      "Ġdecl": 7286,
      "Ġrend": 7287,
      "ruit": 7288,
      "Ġ24": 7289,
      "Ġrecipes": 7290,
      "Ġcompeting": 7291,
      "Ġpersonnel": 7292,
      "Ġsegments": 7293,
      "ava": 7294,
      "Ġgeometry": 7295,
      "Ġproficiency": 7296,
      "Ġanalyses": 7297,
      "Ġitem": 7298,
      "}_{": 7299,
      "Ġchecks": 7300,
      "ĠSupport": 7301,
      "Ġbigger": 7302,
      "gn": 7303,
      "Ġauthority": 7304,
      "Ġempirical": 7305,
      "Ġrelatively": 7306,
      "Ġprinciple": 7307,
      "ibrium": 7308,
      "cont": 7309,
      "otes": 7310,
      "ola": 7311,
      "Ġemphasize": 7312,
      "Ġconscious": 7313,
      "Ġtargets": 7314,
      "Ġlosing": 7315,
      "Ġattacks": 7316,
      "Ġauthorities": 7317,
      "Ġretail": 7318,
      "Ġchaos": 7319,
      "Ġrefine": 7320,
      "lets": 7321,
      "ĠConsult": 7322,
      "Ġfirsthand": 7323,
      "Ġsunlight": 7324,
      "ES": 7325,
      "Ġrough": 7326,
      "mm": 7327,
      "stream": 7328,
      "coh": 7329,
      "ĠHave": 7330,
      "Ġgear": 7331,
      "Ġgem": 7332,
      "VID": 7333,
      "ĠSally": 7334,
      "Ġelectron": 7335,
      "Ġstock": 7336,
      "ĠBlack": 7337,
      "ĠThink": 7338,
      "Ġtriangles": 7339,
      "Ġcollaborations": 7340,
      "Ġdoor": 7341,
      "Ġcas": 7342,
      "Ġ.": 7343,
      "angers": 7344,
      "depth": 7345,
      "ĠComple": 7346,
      "Ġmorning": 7347,
      "enn": 7348,
      "Ġrecre": 7349,
      "Ġcompact": 7350,
      "economic": 7351,
      "jective": 7352,
      "Ġcomputational": 7353,
      "Ġplacing": 7354,
      "\\\\": 7355,
      "Ġconvert": 7356,
      "Ġvic": 7357,
      "Ġtrading": 7358,
      "Ġanalytical": 7359,
      "Ġsea": 7360,
      "ĠServices": 7361,
      "Ġunfold": 7362,
      "Ġdesire": 7363,
      "ĠGrad": 7364,
      "ĠSeek": 7365,
      "Ġsolar": 7366,
      "scale": 7367,
      "turing": 7368,
      "alse": 7369,
      "Ġstem": 7370,
      "}=\\": 7371,
      "rem": 7372,
      "disciplinary": 7373,
      "Ġtalents": 7374,
      "Ġwidely": 7375,
      "Ġsummar": 7376,
      "ii": 7377,
      "Ġexplan": 7378,
      "ship": 7379,
      "Ġenjoyable": 7380,
      "Sim": 7381,
      "Ġnetworking": 7382,
      "Ġ2017": 7383,
      "Ġyes": 7384,
      "Ġagency": 7385,
      ")-": 7386,
      "ĠHence": 7387,
      "rown": 7388,
      "cons": 7389,
      "Ġcovering": 7390,
      "Ġeating": 7391,
      "Ġaffordable": 7392,
      "Ġnotion": 7393,
      "Ġwouldn": 7394,
      "ecutive": 7395,
      "ĠHel": 7396,
      "Ġcareers": 7397,
      "Ġmanageable": 7398,
      "Ġjoint": 7399,
      "ĠPeople": 7400,
      "fl": 7401,
      "Meanwhile": 7402,
      "Ġprobabilities": 7403,
      "Ġtrigon": 7404,
      "Ġconcrete": 7405,
      "Ġlaughter": 7406,
      "Ġwall": 7407,
      "ĠClass": 7408,
      "ĠMag": 7409,
      "Int": 7410,
      "Ġwidth": 7411,
      "Ġsharp": 7412,
      "ney": 7413,
      "Ġdele": 7414,
      "Ġprovider": 7415,
      "Ġbridge": 7416,
      "Ġtapestry": 7417,
      "Ġmeticulous": 7418,
      "ĠRead": 7419,
      "attle": 7420,
      "Ġheightened": 7421,
      "eem": 7422,
      "wood": 7423,
      "Ġdreams": 7424,
      "ask": 7425,
      "Ġsocieties": 7426,
      "la": 7427,
      "Ġtheme": 7428,
      "ĠProfession": 7429,
      "Ġagric": 7430,
      "empt": 7431,
      "riven": 7432,
      "ossible": 7433,
      "Ġorient": 7434,
      "Ġsoil": 7435,
      "Ġrelation": 7436,
      "Ġphotos": 7437,
      "Ġdeals": 7438,
      "Ġsecrets": 7439,
      "Ġrestaur": 7440,
      "omfort": 7441,
      "Ġcherished": 7442,
      "Ġarithmetic": 7443,
      "Ġattempts": 7444,
      "Cre": 7445,
      "Ġemissions": 7446,
      "grad": 7447,
      "ĠPractices": 7448,
      "Ġregulation": 7449,
      "Ġrush": 7450,
      "Ġcommand": 7451,
      "ĠModern": 7452,
      "ĠAlso": 7453,
      "100": 7454,
      "Ġcenturies": 7455,
      "Ġcryst": 7456,
      "Ġrevel": 7457,
      "Ġcalculation": 7458,
      "((": 7459,
      "Ġju": 7460,
      "Ġwel": 7461,
      "Ġcup": 7462,
      "apers": 7463,
      "stone": 7464,
      "Ġelectrical": 7465,
      "Ġ17": 7466,
      "Ġcycles": 7467,
      "Ġ&=": 7468,
      "Ġaligned": 7469,
      "ateful": 7470,
      "Ġvegetables": 7471,
      "Ġfalls": 7472,
      "Ġgravity": 7473,
      "rolling": 7474,
      "ĠGuide": 7475,
      "Ġbus": 7476,
      "Un": 7477,
      "ĠMusic": 7478,
      "Ġendless": 7479,
      "zed": 7480,
      "pled": 7481,
      "Ġsensitivity": 7482,
      "ĠSelect": 7483,
      "Ġconfigurations": 7484,
      "Ġgaining": 7485,
[...]
